{
  "version": "1.0",
  "truncation": null,
  "padding": {
    "strategy": "BatchLongest",
    "direction": "Right",
    "pad_to_multiple_of": null,
    "pad_id": 0,
    "pad_type_id": 0,
    "pad_token": "[PAD]"
  },
  "added_tokens": [
    {
      "id": 0,
      "content": "[PAD]",
      "single_word": false,
      "lstrip": false,
      "rstrip": false,
      "normalized": false,
      "special": true
    },
    {
      "id": 1,
      "content": "[UNK]",
      "single_word": false,
      "lstrip": false,
      "rstrip": false,
      "normalized": false,
      "special": true
    }
  ],
  "normalizer": {
    "type": "Sequence",
    "normalizers": [
      {
        "type": "NFD"
      },
      {
        "type": "Lowercase"
      },
      {
        "type": "StripAccents"
      }
    ]
  },
  "pre_tokenizer": {
    "type": "Whitespace"
  },
  "post_processor": null,
  "decoder": null,
  "model": {
    "type": "BPE",
    "dropout": null,
    "unk_token": "[UNK]",
    "continuing_subword_prefix": null,
    "end_of_word_suffix": null,
    "fuse_unk": false,
    "byte_fallback": false,
    "vocab": {
      "[PAD]": 0,
      "[UNK]": 1,
      "_": 2,
      "a": 3,
      "b": 4,
      "c": 5,
      "d": 6,
      "e": 7,
      "f": 8,
      "g": 9,
      "h": 10,
      "i": 11,
      "j": 12,
      "k": 13,
      "l": 14,
      "m": 15,
      "n": 16,
      "o": 17,
      "p": 18,
      "q": 19,
      "r": 20,
      "s": 21,
      "t": 22,
      "u": 23,
      "v": 24,
      "w": 25,
      "x": 26,
      "y": 27,
      "z": 28,
      "in": 29,
      "th": 30,
      "an": 31,
      "to": 32,
      "er": 33,
      "ou": 34,
      "ing": 35,
      "on": 36,
      "re": 37,
      "at": 38,
      "the": 39,
      "it": 40,
      "or": 41,
      "st": 42,
      "ll": 43,
      "me": 44,
      "is": 45,
      "ha": 46,
      "ay": 47,
      "ee": 48,
      "oo": 49,
      "ve": 50,
      "no": 51,
      "you": 52,
      "and": 53,
      "my": 54,
      "le": 55,
      "ed": 56,
      "ar": 57,
      "en": 58,
      "so": 59,
      "ch": 60,
      "as": 61,
      "be": 62,
      "ho": 63,
      "es": 64,
      "go": 65,
      "ad": 66,
      "gh": 67,
      "lo": 68,
      "day": 69,
      "for": 70,
      "of": 71,
      "ck": 72,
      "all": 73,
      "li": 74,
      "am": 75,
      "ro": 76,
      "ut": 77,
      "wi": 78,
      "al": 79,
      "et": 80,
      "he": 81,
      "un": 82,
      "ti": 83,
      "wh": 84,
      "ke": 85,
      "that": 86,
      "we": 87,
      "ri": 88,
      "ght": 89,
      "do": 90,
      "ver": 91,
      "out": 92,
      "se": 93,
      "ly": 94,
      "have": 95,
      "id": 96,
      "one": 97,
      "now": 98,
      "up": 99,
      "ust": 100,
      "co": 101,
      "ce": 102,
      "ld": 103,
      "but": 104,
      "mo": 105,
      "ter": 106,
      "wor": 107,
      "just": 108,
      "ni": 109,
      "ere": 110,
      "can": 111,
      "with": 112,
      "ne": 113,
      "ood": 114,
      "get": 115,
      "was": 116,
      "not": 117,
      "la": 118,
      "ra": 119,
      "are": 120,
      "ir": 121,
      "ma": 122,
      "qu": 123,
      "ab": 124,
      "ur": 125,
      "some": 126,
      "pe": 127,
      "good": 128,
      "tw": 129,
      "work": 130,
      "ally": 131,
      "im": 132,
      "this": 133,
      "ry": 134,
      "us": 135,
      "pp": 136,
      "ot": 137,
      "ic": 138,
      "ould": 139,
      "ill": 140,
      "sh": 141,
      "ba": 142,
      "end": 143,
      "night": 144,
      "de": 145,
      "su": 146,
      "like": 147,
      "love": 148,
      "mor": 149,
      "got": 150,
      "ant": 151,
      "nt": 152,
      "na": 153,
      "time": 154,
      "don": 155,
      "ate": 156,
      "ther": 157,
      "too": 158,
      "how": 159,
      "ye": 160,
      "quot": 161,
      "ink": 162,
      "thing": 163,
      "than": 164,
      "ag": 165,
      "today": 166,
      "your": 167,
      "ss": 168,
      "see": 169,
      "iss": 170,
      "ook": 171,
      "if": 172,
      "bo": 173,
      "going": 174,
      "fee": 175,
      "po": 176,
      "te": 177,
      "ta": 178,
      "haha": 179,
      "ish": 180,
      "way": 181,
      "very": 182,
      "wee": 183,
      "what": 184,
      "back": 185,
      "eep": 186,
      "rom": 187,
      "any": 188,
      "lol": 189,
      "fin": 190,
      "ting": 191,
      "wa": 192,
      "miss": 193,
      "ion": 194,
      "want": 195,
      "ow": 196,
      "amp": 197,
      "fo": 198,
      "fa": 199,
      "from": 200,
      "fe": 201,
      "know": 202,
      "mm": 203,
      "ong": 204,
      "our": 205,
      "ca": 206,
      "atch": 207,
      "ex": 208,
      "will": 209,
      "did": 210,
      "new": 211,
      "thank": 212,
      "ning": 213,
      "art": 214,
      "think": 215,
      "ple": 216,
      "feel": 217,
      "about": 218,
      "si": 219,
      "ah": 220,
      "had": 221,
      "really": 222,
      "off": 223,
      "sa": 224,
      "its": 225,
      "nd": 226,
      "oh": 227,
      "eed": 228,
      "ers": 229,
      "pl": 230,
      "week": 231,
      "gu": 232,
      "row": 233,
      "mu": 234,
      "ain": 235,
      "fri": 236,
      "read": 237,
      "ie": 238,
      "more": 239,
      "gre": 240,
      "watch": 241,
      "home": 242,
      "com": 243,
      "there": 244,
      "ent": 245,
      "well": 246,
      "il": 247,
      "ough": 248,
      "they": 249,
      "red": 250,
      "need": 251,
      "still": 252,
      "twit": 253,
      "sp": 254,
      "ct": 255,
      "ool": 256,
      "con": 257,
      "fu": 258,
      "ge": 259,
      "ite": 260,
      "look": 261,
      "sl": 262,
      "when": 263,
      "fun": 264,
      "hope": 265,
      "ww": 266,
      "ving": 267,
      "twitter": 268,
      "um": 269,
      "ound": 270,
      "een": 271,
      "last": 272,
      "happ": 273,
      "mi": 274,
      "ts": 275,
      "jo": 276,
      "here": 277,
      "come": 278,
      "much": 279,
      "king": 280,
      "ine": 281,
      "ph": 282,
      "ard": 283,
      "sleep": 284,
      "ess": 285,
      "morrow": 286,
      "oooo": 287,
      "has": 288,
      "pre": 289,
      "thanks": 290,
      "every": 291,
      "then": 292,
      "her": 293,
      "eve": 294,
      "hh": 295,
      "wn": 296,
      "ide": 297,
      "tomorrow": 298,
      "pro": 299,
      "wish": 300,
      "lu": 301,
      "morning": 302,
      "aa": 303,
      "been": 304,
      "great": 305,
      "sad": 306,
      "wait": 307,
      "ous": 308,
      "che": 309,
      "by": 310,
      "right": 311,
      "ind": 312,
      "again": 313,
      "sun": 314,
      "use": 315,
      "she": 316,
      "friend": 317,
      "sto": 318,
      "would": 319,
      "llow": 320,
      "af": 321,
      "ty": 322,
      "bad": 323,
      "sor": 324,
      "won": 325,
      "gr": 326,
      "bu": 327,
      "ig": 328,
      "could": 329,
      "man": 330,
      "follow": 331,
      "ready": 332,
      "ass": 333,
      "ble": 334,
      "twee": 335,
      "ation": 336,
      "why": 337,
      "ff": 338,
      "only": 339,
      "over": 340,
      "rain": 341,
      "stu": 342,
      "dy": 343,
      "other": 344,
      "who": 345,
      "pa": 346,
      "mon": 347,
      "bet": 348,
      "lt": 349,
      "ok": 350,
      "der": 351,
      "show": 352,
      "say": 353,
      "tonight": 354,
      "ru": 355,
      "though": 356,
      "happy": 357,
      "rea": 358,
      "should": 359,
      "make": 360,
      "gon": 361,
      "sorry": 362,
      "xt": 363,
      "them": 364,
      "bed": 365,
      "down": 366,
      "di": 367,
      "per": 368,
      "head": 369,
      "sch": 370,
      "ys": 371,
      "lea": 372,
      "getting": 373,
      "try": 374,
      "pic": 375,
      "ive": 376,
      "ster": 377,
      "lf": 378,
      "after": 379,
      "play": 380,
      "nice": 381,
      "days": 382,
      "gonna": 383,
      "har": 384,
      "ny": 385,
      "ac": 386,
      "ase": 387,
      "does": 388,
      "better": 389,
      "yeah": 390,
      "yes": 391,
      "sc": 392,
      "ber": 393,
      "tle": 394,
      "ga": 395,
      "gl": 396,
      "ment": 397,
      "watching": 398,
      "hi": 399,
      "br": 400,
      "xx": 401,
      "may": 402,
      "ile": 403,
      "phone": 404,
      "ang": 405,
      "long": 406,
      "school": 407,
      "hour": 408,
      "ies": 409,
      "peo": 410,
      "people": 411,
      "cause": 412,
      "didn": 413,
      "ick": 414,
      "tu": 415,
      "bab": 416,
      "om": 417,
      "him": 418,
      "mad": 419,
      "where": 420,
      "let": 421,
      "fi": 422,
      "lit": 423,
      "hey": 424,
      "vie": 425,
      "ps": 426,
      "gg": 427,
      "ree": 428,
      "part": 429,
      "app": 430,
      "hate": 431,
      "ans": 432,
      "awe": 433,
      "weekend": 434,
      "even": 435,
      "ice": 436,
      "ear": 437,
      "anna": 438,
      "tion": 439,
      "min": 440,
      "ms": 441,
      "tho": 442,
      "cks": 443,
      "ci": 444,
      "ought": 445,
      "next": 446,
      "gir": 447,
      "bro": 448,
      "awesome": 449,
      "never": 450,
      "cra": 451,
      "ugh": 452,
      "ul": 453,
      "soon": 454,
      "kes": 455,
      "fir": 456,
      "best": 457,
      "dont": 458,
      "start": 459,
      "list": 460,
      "yy": 461,
      "tal": 462,
      "were": 463,
      "cit": 464,
      "ama": 465,
      "his": 466,
      "cant": 467,
      "fore": 468,
      "sup": 469,
      "take": 470,
      "pr": 471,
      "ways": 472,
      "girl": 473,
      "sho": 474,
      "car": 475,
      "year": 476,
      "hu": 477,
      "ater": 478,
      "little": 479,
      "sick": 480,
      "first": 481,
      "working": 482,
      "age": 483,
      "life": 484,
      "put": 485,
      "most": 486,
      "inter": 487,
      "aww": 488,
      "tired": 489,
      "bit": 490,
      "ser": 491,
      "wanna": 492,
      "call": 493,
      "bea": 494,
      "ft": 495,
      "book": 496,
      "sure": 497,
      "wr": 498,
      "cou": 499,
      "tweet": 500,
      "du": 501,
      "having": 502,
      "doing": 503,
      "dam": 504,
      "being": 505,
      "ouse": 506,
      "mar": 507,
      "ooo": 508,
      "dr": 509,
      "mmer": 510,
      "eat": 511,
      "late": 512,
      "rr": 513,
      "self": 514,
      "hel": 515,
      "ste": 516,
      "done": 517,
      "da": 518,
      "feeling": 519,
      "zing": 520,
      "hur": 521,
      "yay": 522,
      "joy": 523,
      "find": 524,
      "able": 525,
      "ever": 526,
      "please": 527,
      "keep": 528,
      "cl": 529,
      "tri": 530,
      "cut": 531,
      "wo": 532,
      "house": 533,
      "cle": 534,
      "cool": 535,
      "friends": 536,
      "always": 537,
      "zz": 538,
      "ner": 539,
      "act": 540,
      "already": 541,
      "ort": 542,
      "side": 543,
      "live": 544,
      "another": 545,
      "something": 546,
      "ya": 547,
      "est": 548,
      "everyone": 549,
      "ward": 550,
      "made": 551,
      "brea": 552,
      "til": 553,
      "ream": 554,
      "guys": 555,
      "luck": 556,
      "sit": 557,
      "tra": 558,
      "song": 559,
      "dis": 560,
      "pret": 561,
      "enjoy": 562,
      "cu": 563,
      "full": 564,
      "because": 565,
      "help": 566,
      "sha": 567,
      "old": 568,
      "went": 569,
      "looking": 570,
      "yet": 571,
      "hours": 572,
      "big": 573,
      "sound": 574,
      "lot": 575,
      "bir": 576,
      "before": 577,
      "par": 578,
      "damn": 579,
      "movie": 580,
      "je": 581,
      "win": 582,
      "away": 583,
      "hot": 584,
      "tell": 585,
      "int": 586,
      "summer": 587,
      "urn": 588,
      "hell": 589,
      "pretty": 590,
      "ually": 591,
      "unch": 592,
      "omg": 593,
      "thought": 594,
      "pla": 595,
      "dd": 596,
      "ful": 597,
      "maybe": 598,
      "ance": 599,
      "bl": 600,
      "blo": 601,
      "bus": 602,
      "game": 603,
      "pt": 604,
      "star": 605,
      "finish": 606,
      "tor": 607,
      "trying": 608,
      "amazing": 609,
      "light": 610,
      "excit": 611,
      "ii": 612,
      "guess": 613,
      "listen": 614,
      "ious": 615,
      "mus": 616,
      "el": 617,
      "while": 618,
      "ily": 619,
      "eeee": 620,
      "wea": 621,
      "things": 622,
      "finally": 623,
      "kind": 624,
      "early": 625,
      "check": 626,
      "times": 627,
      "hard": 628,
      "coming": 629,
      "clo": 630,
      "into": 631,
      "vis": 632,
      "fuck": 633,
      "mom": 634,
      "fam": 635,
      "des": 636,
      "left": 637,
      "ton": 638,
      "someone": 639,
      "bs": 640,
      "hear": 641,
      "wow": 642,
      "roo": 643,
      "cer": 644,
      "less": 645,
      "ash": 646,
      "give": 647,
      "gs": 648,
      "ja": 649,
      "run": 650,
      "friday": 651,
      "les": 652,
      "kid": 653,
      "ds": 654,
      "break": 655,
      "pen": 656,
      "stuff": 657,
      "sin": 658,
      "same": 659,
      "ure": 660,
      "missed": 661,
      "face": 662,
      "lost": 663,
      "baby": 664,
      "talk": 665,
      "nothing": 666,
      "ated": 667,
      "load": 668,
      "party": 669,
      "sat": 670,
      "glad": 671,
      "bored": 672,
      "swee": 673,
      "set": 674,
      "boo": 675,
      "post": 676,
      "tr": 677,
      "sing": 678,
      "weather": 679,
      "later": 680,
      "also": 681,
      "looks": 682,
      "real": 683,
      "happen": 684,
      "two": 685,
      "birth": 686,
      "god": 687,
      "vo": 688,
      "music": 689,
      "hair": 690,
      "world": 691,
      "doesn": 692,
      "many": 693,
      "sk": 694,
      "sucks": 695,
      "ia": 696,
      "saw": 697,
      "uu": 698,
      "might": 699,
      "ise": 700,
      "spe": 701,
      "dri": 702,
      "actually": 703,
      "stay": 704,
      "wonder": 705,
      "waiting": 706,
      "far": 707,
      "excited": 708,
      "hun": 709,
      "exam": 710,
      "those": 711,
      "ity": 712,
      "ange": 713,
      "ding": 714,
      "din": 715,
      "tv": 716,
      "birthday": 717,
      "makes": 718,
      "ason": 719,
      "yester": 720,
      "meet": 721,
      "wer": 722,
      "free": 723,
      "zy": 724,
      "said": 725,
      "line": 726,
      "yesterday": 727,
      "wal": 728,
      "fr": 729,
      "ach": 730,
      "vide": 731,
      "cor": 732,
      "since": 733,
      "bla": 734,
      "land": 735,
      "until": 736,
      "thats": 737,
      "beaut": 738,
      "ked": 739,
      "gotta": 740,
      "few": 741,
      "shit": 742,
      "net": 743,
      "wake": 744,
      "such": 745,
      "cold": 746,
      "em": 747,
      "ats": 748,
      "upd": 749,
      "bb": 750,
      "boy": 751,
      "hahaha": 752,
      "video": 753,
      "around": 754,
      "dad": 755,
      "myself": 756,
      "class": 757,
      "ten": 758,
      "must": 759,
      "port": 760,
      "cha": 761,
      "pping": 762,
      "body": 763,
      "count": 764,
      "cho": 765,
      "gt": 766,
      "found": 767,
      "bor": 768,
      "mber": 769,
      "io": 770,
      "tru": 771,
      "ates": 772,
      "leave": 773,
      "ating": 774,
      "aw": 775,
      "reme": 776,
      "least": 777,
      "ger": 778,
      "mean": 779,
      "monday": 780,
      "pho": 781,
      "under": 782,
      "sm": 783,
      "iful": 784,
      "plan": 785,
      "their": 786,
      "poor": 787,
      "cr": 788,
      "mind": 789,
      "room": 790,
      "haven": 791,
      "job": 792,
      "wed": 793,
      "sounds": 794,
      "sunday": 795,
      "ction": 796,
      "fer": 797,
      "till": 798,
      "beautiful": 799,
      "making": 800,
      "ary": 801,
      "turn": 802,
      "hehe": 803,
      "top": 804,
      "stop": 805,
      "gone": 806,
      "pain": 807,
      "beli": 808,
      "buy": 809,
      "food": 810,
      "tt": 811,
      "ace": 812,
      "fast": 813,
      "fav": 814,
      "ture": 815,
      "lunch": 816,
      "ress": 817,
      "anything": 818,
      "gy": 819,
      "okay": 820,
      "drink": 821,
      "rest": 822,
      "aaaa": 823,
      "missing": 824,
      "med": 825,
      "men": 826,
      "pers": 827,
      "pi": 828,
      "oney": 829,
      "month": 830,
      "ich": 831,
      "grad": 832,
      "air": 833,
      "rough": 834,
      "woke": 835,
      "ken": 836,
      "add": 837,
      "cked": 838,
      "low": 839,
      "family": 840,
      "almost": 841,
      "isn": 842,
      "cket": 843,
      "ank": 844,
      "cute": 845,
      "mail": 846,
      "wanted": 847,
      "xo": 848,
      "fully": 849,
      "used": 850,
      "photo": 851,
      "soooo": 852,
      "iphone": 853,
      "ju": 854,
      "ball": 855,
      "dinner": 856,
      "listening": 857,
      "picture": 858,
      "funny": 859,
      "place": 860,
      "super": 861,
      "cry": 862,
      "study": 863,
      "ak": 864,
      "dream": 865,
      "pu": 866,
      "bum": 867,
      "everything": 868,
      "believe": 869,
      "ence": 870,
      "sweet": 871,
      "sur": 872,
      "finished": 873,
      "ley": 874,
      "wel": 875,
      "mess": 876,
      "playing": 877,
      "anyone": 878,
      "which": 879,
      "va": 880,
      "name": 881,
      "cof": 882,
      "tot": 883,
      "kill": 884,
      "thinking": 885,
      "forward": 886,
      "rep": 887,
      "arent": 888,
      "without": 889,
      "stup": 890,
      "mine": 891,
      "gn": 892,
      "als": 893,
      "hand": 894,
      "ze": 895,
      "stupid": 896,
      "tin": 897,
      "test": 898,
      "coffee": 899,
      "war": 900,
      "oot": 901,
      "fre": 902,
      "send": 903,
      "clean": 904,
      "ap": 905,
      "ted": 906,
      "bur": 907,
      "ago": 908,
      "ping": 909,
      "through": 910,
      "ache": 911,
      "outside": 912,
      "bar": 913,
      "totally": 914,
      "these": 915,
      "hang": 916,
      "ip": 917,
      "ones": 918,
      "enough": 919,
      "ast": 920,
      "bi": 921,
      "sy": 922,
      "au": 923,
      "ness": 924,
      "press": 925,
      "hurts": 926,
      "dan": 927,
      "gra": 928,
      "anymore": 929,
      "probab": 930,
      "didnt": 931,
      "satur": 932,
      "heart": 933,
      "lor": 934,
      "probably": 935,
      "weeks": 936,
      "hhhh": 937,
      "cour": 938,
      "care": 939,
      "ved": 940,
      "hmm": 941,
      "came": 942,
      "gi": 943,
      "pped": 944,
      "ins": 945,
      "bye": 946,
      "raining": 947,
      "person": 948,
      "comp": 949,
      "nor": 950,
      "wrong": 951,
      "tweets": 952,
      "remember": 953,
      "sooo": 954,
      "hor": 955,
      "minut": 956,
      "eating": 957,
      "busy": 958,
      "nn": 959,
      "lle": 960,
      "sed": 961,
      "tre": 962,
      "stand": 963,
      "tom": 964,
      "view": 965,
      "vin": 966,
      "hit": 967,
      "cur": 968,
      "brother": 969,
      "money": 970,
      "reading": 971,
      "open": 972,
      "half": 973,
      "serious": 974,
      "ask": 975,
      "son": 976,
      "pass": 977,
      "tic": 978,
      "mother": 979,
      "ither": 980,
      "band": 981,
      "wants": 982,
      "cre": 983,
      "vers": 984,
      "tun": 985,
      "saturday": 986,
      "cy": 987,
      "whole": 988,
      "beach": 989,
      "lovely": 990,
      "welcome": 991,
      "sent": 992,
      "taking": 993,
      "sim": 994,
      "kids": 995,
      "forgot": 996,
      "cook": 997,
      "seen": 998,
      "kinda": 999,
      "wear": 1000,
      "following": 1001,
      "news": 1002,
      "guy": 1003,
      "rock": 1004,
      "ces": 1005,
      "ls": 1006,
      "dec": 1007,
      "amer": 1008,
      "crazy": 1009,
      "fall": 1010,
      "pri": 1011,
      "comput": 1012,
      "high": 1013,
      "hopefully": 1014,
      "jun": 1015,
      "pm": 1016,
      "fly": 1017,
      "says": 1018,
      "cong": 1019,
      "took": 1020,
      "both": 1021,
      "blog": 1022,
      "own": 1023,
      "true": 1024,
      "py": 1025,
      "followers": 1026,
      "soo": 1027,
      "cuz": 1028,
      "fan": 1029,
      "pick": 1030,
      "years": 1031,
      "lly": 1032,
      "idea": 1033,
      "awww": 1034,
      "town": 1035,
      "chill": 1036,
      "else": 1037,
      "ring": 1038,
      "fect": 1039,
      "woo": 1040,
      "ks": 1041,
      "bring": 1042,
      "link": 1043,
      "congr": 1044,
      "lots": 1045,
      "eee": 1046,
      "jon": 1047,
      "proble": 1048,
      "vid": 1049,
      "chi": 1050,
      "dog": 1051,
      "wasn": 1052,
      "sign": 1053,
      "fail": 1054,
      "ush": 1055,
      "lay": 1056,
      "course": 1057,
      "pics": 1058,
      "girls": 1059,
      "either": 1060,
      "iting": 1061,
      "sitting": 1062,
      "computer": 1063,
      "mat": 1064,
      "once": 1065,
      "shopping": 1066,
      "cking": 1067,
      "leaving": 1068,
      "dar": 1069,
      "black": 1070,
      "hello": 1071,
      "ney": 1072,
      "concer": 1073,
      "hurt": 1074,
      "nite": 1075,
      "ling": 1076,
      "box": 1077,
      "trip": 1078,
      "feels": 1079,
      "internet": 1080,
      "bri": 1081,
      "rs": 1082,
      "twi": 1083,
      "cess": 1084,
      "cial": 1085,
      "cli": 1086,
      "mag": 1087,
      "lear": 1088,
      "seems": 1089,
      "alone": 1090,
      "btw": 1091,
      "space": 1092,
      "couldn": 1093,
      "fl": 1094,
      "ticket": 1095,
      "office": 1096,
      "char": 1097,
      "clu": 1098,
      "esday": 1099,
      "ana": 1100,
      "talking": 1101,
      "hung": 1102,
      "dif": 1103,
      "defin": 1104,
      "headache": 1105,
      "heard": 1106,
      "tried": 1107,
      "watched": 1108,
      "stuck": 1109,
      "lma": 1110,
      "goodnight": 1111,
      "lin": 1112,
      "needs": 1113,
      "itch": 1114,
      "loved": 1115,
      "ught": 1116,
      "change": 1117,
      "mac": 1118,
      "favor": 1119,
      "gets": 1120,
      "lad": 1121,
      "ng": 1122,
      "started": 1123,
      "rible": 1124,
      "sw": 1125,
      "text": 1126,
      "interest": 1127,
      "lap": 1128,
      "fix": 1129,
      "noon": 1130,
      "dro": 1131,
      "pay": 1132,
      "seeing": 1133,
      "walk": 1134,
      "catch": 1135,
      "wont": 1136,
      "sou": 1137,
      "suck": 1138,
      "ared": 1139,
      "drive": 1140,
      "eas": 1141,
      "move": 1142,
      "vot": 1143,
      "vi": 1144,
      "kk": 1145,
      "ions": 1146,
      "dra": 1147,
      "mp": 1148,
      "ations": 1149,
      "season": 1150,
      "bra": 1151,
      "den": 1152,
      "quite": 1153,
      "suppo": 1154,
      "ahhh": 1155,
      "fine": 1156,
      "ummy": 1157,
      "reply": 1158,
      "shower": 1159,
      "online": 1160,
      "mit": 1161,
      "dead": 1162,
      "engl": 1163,
      "stra": 1164,
      "site": 1165,
      "goes": 1166,
      "awake": 1167,
      "breakfast": 1168,
      "ross": 1169,
      "email": 1170,
      "lon": 1171,
      "smi": 1172,
      "boring": 1173,
      "mid": 1174,
      "told": 1175,
      "water": 1176,
      "cell": 1177,
      "word": 1178,
      "ately": 1179,
      "yo": 1180,
      "tour": 1181,
      "ird": 1182,
      "facebook": 1183,
      "cti": 1184,
      "cal": 1185,
      "seriously": 1186,
      "ped": 1187,
      "frea": 1188,
      "using": 1189,
      "lmao": 1190,
      "ep": 1191,
      "dou": 1192,
      "pod": 1193,
      "spend": 1194,
      "mc": 1195,
      "cover": 1196,
      "city": 1197,
      "sol": 1198,
      "lucky": 1199,
      "oud": 1200,
      "sen": 1201,
      "kin": 1202,
      "sunny": 1203,
      "oooooooo": 1204,
      "str": 1205,
      "minutes": 1206,
      "ried": 1207,
      "mr": 1208,
      "broke": 1209,
      "ages": 1210,
      "bought": 1211,
      "cup": 1212,
      "key": 1213,
      "ath": 1214,
      "quest": 1215,
      "ici": 1216,
      "june": 1217,
      "ris": 1218,
      "starting": 1219,
      "called": 1220,
      "qui": 1221,
      "cat": 1222,
      "concert": 1223,
      "asl": 1224,
      "wards": 1225,
      "stead": 1226,
      "dude": 1227,
      "gen": 1228,
      "lic": 1229,
      "sister": 1230,
      "crap": 1231,
      "ight": 1232,
      "anyway": 1233,
      "update": 1234,
      "works": 1235,
      "hungry": 1236,
      "reason": 1237,
      "sty": 1238,
      "store": 1239,
      "colle": 1240,
      "form": 1241,
      "asleep": 1242,
      "arch": 1243,
      "afternoon": 1244,
      "nap": 1245,
      "yea": 1246,
      "jeal": 1247,
      "goo": 1248,
      "sta": 1249,
      "secon": 1250,
      "sleeping": 1251,
      "favorite": 1252,
      "led": 1253,
      "bout": 1254,
      "grand": 1255,
      "perfect": 1256,
      "instead": 1257,
      "ves": 1258,
      "xd": 1259,
      "laugh": 1260,
      "scre": 1261,
      "comple": 1262,
      "pan": 1263,
      "gether": 1264,
      "ned": 1265,
      "sigh": 1266,
      "tube": 1267,
      "lax": 1268,
      "fair": 1269,
      "jealous": 1270,
      "near": 1271,
      "camp": 1272,
      "heading": 1273,
      "dress": 1274,
      "card": 1275,
      "cream": 1276,
      "ject": 1277,
      "meeting": 1278,
      "ahh": 1279,
      "cing": 1280,
      "rent": 1281,
      "cus": 1282,
      "album": 1283,
      "ws": 1284,
      "ven": 1285,
      "fortun": 1286,
      "ced": 1287,
      "cent": 1288,
      "mmmm": 1289,
      "dear": 1290,
      "gradu": 1291,
      "sex": 1292,
      "enjoying": 1293,
      "together": 1294,
      "definite": 1295,
      "sal": 1296,
      "sore": 1297,
      "holi": 1298,
      "kick": 1299,
      "pet": 1300,
      "pool": 1301,
      "exams": 1302,
      "hoping": 1303,
      "short": 1304,
      "mark": 1305,
      "chat": 1306,
      "wonderful": 1307,
      "yyyy": 1308,
      "mov": 1309,
      "definitely": 1310,
      "relax": 1311,
      "berry": 1312,
      "running": 1313,
      "die": 1314,
      "roll": 1315,
      "mach": 1316,
      "pray": 1317,
      "cast": 1318,
      "ars": 1319,
      "moment": 1320,
      "swi": 1321,
      "blu": 1322,
      "chur": 1323,
      "rad": 1324,
      "sometimes": 1325,
      "visit": 1326,
      "fucking": 1327,
      "zed": 1328,
      "died": 1329,
      "write": 1330,
      "goin": 1331,
      "boys": 1332,
      "ual": 1333,
      "ian": 1334,
      "slow": 1335,
      "burn": 1336,
      "bby": 1337,
      "urs": 1338,
      "gin": 1339,
      "fire": 1340,
      "couple": 1341,
      "close": 1342,
      "flu": 1343,
      "revis": 1344,
      "comes": 1345,
      "gle": 1346,
      "means": 1347,
      "blood": 1348,
      "cept": 1349,
      "join": 1350,
      "ital": 1351,
      "movies": 1352,
      "pat": 1353,
      "church": 1354,
      "problem": 1355,
      "mum": 1356,
      "congrats": 1357,
      "fil": 1358,
      "prom": 1359,
      "point": 1360,
      "worth": 1361,
      "figu": 1362,
      "ries": 1363,
      "ming": 1364,
      "vac": 1365,
      "tain": 1366,
      "xxx": 1367,
      "chick": 1368,
      "iso": 1369,
      "conf": 1370,
      "laptop": 1371,
      "final": 1372,
      "loves": 1373,
      "eyes": 1374,
      "fing": 1375,
      "order": 1376,
      "evening": 1377,
      "parent": 1378,
      "offici": 1379,
      "tea": 1380,
      "weird": 1381,
      "dance": 1382,
      "poss": 1383,
      "mood": 1384,
      "months": 1385,
      "appo": 1386,
      "youtube": 1387,
      "ute": 1388,
      "account": 1389,
      "ppl": 1390,
      "download": 1391,
      "ane": 1392,
      "homework": 1393,
      "met": 1394,
      "por": 1395,
      "via": 1396,
      "gard": 1397,
      "green": 1398,
      "ctor": 1399,
      "num": 1400,
      "cele": 1401,
      "uk": 1402,
      "tou": 1403,
      "chee": 1404,
      "pra": 1405,
      "happened": 1406,
      "gym": 1407,
      "unfortun": 1408,
      "choco": 1409,
      "cake": 1410,
      "reali": 1411,
      "shine": 1412,
      "ipod": 1413,
      "gar": 1414,
      "lie": 1415,
      "shir": 1416,
      "anno": 1417,
      "sid": 1418,
      "math": 1419,
      "broken": 1420,
      "hoo": 1421,
      "lil": 1422,
      "songs": 1423,
      "vice": 1424,
      "page": 1425,
      "rrrr": 1426,
      "ko": 1427,
      "ale": 1428,
      "wt": 1429,
      "possi": 1430,
      "fb": 1431,
      "train": 1432,
      "ssss": 1433,
      "park": 1434,
      "second": 1435,
      "inst": 1436,
      "interesting": 1437,
      "english": 1438,
      "agree": 1439,
      "comment": 1440,
      "bat": 1441,
      "board": 1442,
      "seem": 1443,
      "differ": 1444,
      "writing": 1445,
      "tickets": 1446,
      "chang": 1447,
      "kit": 1448,
      "iness": 1449,
      "loving": 1450,
      "ont": 1451,
      "studying": 1452,
      "annoy": 1453,
      "sus": 1454,
      "aaa": 1455,
      "understand": 1456,
      "web": 1457,
      "flo": 1458,
      "ters": 1459,
      "squ": 1460,
      "shop": 1461,
      "windo": 1462,
      "mb": 1463,
      "episo": 1464,
      "rand": 1465,
      "und": 1466,
      "gas": 1467,
      "thro": 1468,
      "past": 1469,
      "sub": 1470,
      "ka": 1471,
      "upload": 1472,
      "ade": 1473,
      "team": 1474,
      "ren": 1475,
      "jonas": 1476,
      "ker": 1477,
      "london": 1478,
      "ride": 1479,
      "uring": 1480,
      "knew": 1481,
      "supposed": 1482,
      "moon": 1483,
      "tie": 1484,
      "complete": 1485,
      "answer": 1486,
      "mmm": 1487,
      "xoxo": 1488,
      "thurs": 1489,
      "fli": 1490,
      "wedding": 1491,
      "reci": 1492,
      "chocolate": 1493,
      "search": 1494,
      "story": 1495,
      "moving": 1496,
      "bot": 1497,
      "os": 1498,
      "beat": 1499,
      "rist": 1500,
      "worst": 1501,
      "parents": 1502,
      "smile": 1503,
      "flight": 1504,
      "fell": 1505,
      "enter": 1506,
      "ue": 1507,
      "wishing": 1508,
      "saying": 1509,
      "gor": 1510,
      "bless": 1511,
      "three": 1512,
      "unk": 1513,
      "ills": 1514,
      "cd": 1515,
      "uni": 1516,
      "sleepy": 1517,
      "ition": 1518,
      "gest": 1519,
      "cted": 1520,
      "awards": 1521,
      "touch": 1522,
      "lady": 1523,
      "forget": 1524,
      "aren": 1525,
      "power": 1526,
      "fit": 1527,
      "unfortunately": 1528,
      "mer": 1529,
      "hold": 1530,
      "depress": 1531,
      "ob": 1532,
      "driving": 1533,
      "wing": 1534,
      "ina": 1535,
      "tweeting": 1536,
      "tory": 1537,
      "mal": 1538,
      "date": 1539,
      "comm": 1540,
      "upset": 1541,
      "ult": 1542,
      "yu": 1543,
      "cos": 1544,
      "eye": 1545,
      "foot": 1546,
      "ist": 1547,
      "pot": 1548,
      "yep": 1549,
      "sle": 1550,
      "ised": 1551,
      "vel": 1552,
      "recor": 1553,
      "res": 1554,
      "door": 1555,
      "appoint": 1556,
      "tee": 1557,
      "val": 1558,
      "paper": 1559,
      "words": 1560,
      "hhh": 1561,
      "ug": 1562,
      "pictures": 1563,
      "mas": 1564,
      "road": 1565,
      "op": 1566,
      "cleaning": 1567,
      "kn": 1568,
      "ban": 1569,
      "hea": 1570,
      "horrible": 1571,
      "leg": 1572,
      "ils": 1573,
      "sco": 1574,
      "gave": 1575,
      "quick": 1576,
      "illy": 1577,
      "mou": 1578,
      "gan": 1579,
      "wit": 1580,
      "due": 1581,
      "ooooo": 1582,
      "dreams": 1583,
      "ons": 1584,
      "drinking": 1585,
      "easy": 1586,
      "sunshine": 1587,
      "ali": 1588,
      "college": 1589,
      "ship": 1590,
      "project": 1591,
      "iled": 1592,
      "garden": 1593,
      "mic": 1594,
      "chance": 1595,
      "ey": 1596,
      "tan": 1597,
      "eeps": 1598,
      "case": 1599,
      "ground": 1600,
      "brow": 1601,
      "prof": 1602,
      "wouldn": 1603,
      "apparent": 1604,
      "produ": 1605,
      "fic": 1606,
      "ky": 1607,
      "stick": 1608,
      "xxxx": 1609,
      "throat": 1610,
      "worse": 1611,
      "sive": 1612,
      "dun": 1613,
      "nat": 1614,
      "brit": 1615,
      "jor": 1616,
      "fight": 1617,
      "blue": 1618,
      "ience": 1619,
      "special": 1620,
      "hahah": 1621,
      "sis": 1622,
      "tuesday": 1623,
      "lier": 1624,
      "holiday": 1625,
      "bday": 1626,
      "worry": 1627,
      "cially": 1628,
      "longer": 1629,
      "ica": 1630,
      "mil": 1631,
      "mis": 1632,
      "apple": 1633,
      "ines": 1634,
      "stre": 1635,
      "rather": 1636,
      "bud": 1637,
      "slept": 1638,
      "whats": 1639,
      "miley": 1640,
      "safe": 1641,
      "deli": 1642,
      "plus": 1643,
      "stor": 1644,
      "scared": 1645,
      "iiii": 1646,
      "fm": 1647,
      "apparently": 1648,
      "gover": 1649,
      "small": 1650,
      "wtf": 1651,
      "tur": 1652,
      "rid": 1653,
      "hugs": 1654,
      "cous": 1655,
      "doesnt": 1656,
      "camer": 1657,
      "awwww": 1658,
      "expe": 1659,
      "absol": 1660,
      "lar": 1661,
      "hum": 1662,
      "wash": 1663,
      "ended": 1664,
      "pop": 1665,
      "andy": 1666,
      "fish": 1667,
      "father": 1668,
      "cannot": 1669,
      "eu": 1670,
      "huge": 1671,
      "lets": 1672,
      "vs": 1673,
      "forever": 1674,
      "webs": 1675,
      "white": 1676,
      "spent": 1677,
      "event": 1678,
      "ics": 1679,
      "dv": 1680,
      "ouch": 1681,
      "jam": 1682,
      "mtv": 1683,
      "tex": 1684,
      "shame": 1685,
      "teach": 1686,
      "han": 1687,
      "sme": 1688,
      "stress": 1689,
      "glass": 1690,
      "ign": 1691,
      "updates": 1692,
      "myspace": 1693,
      "rip": 1694,
      "pur": 1695,
      "voice": 1696,
      "grow": 1697,
      "sn": 1698,
      "thinks": 1699,
      "ev": 1700,
      "warm": 1701,
      "inv": 1702,
      "plans": 1703,
      "pleas": 1704,
      "babe": 1705,
      "earlier": 1706,
      "graph": 1707,
      "beer": 1708,
      "bitch": 1709,
      "sist": 1710,
      "conne": 1711,
      "pup": 1712,
      "lazy": 1713,
      "vacation": 1714,
      "vote": 1715,
      "decid": 1716,
      "ants": 1717,
      "wondering": 1718,
      "thx": 1719,
      "crash": 1720,
      "remind": 1721,
      "david": 1722,
      "kno": 1723,
      "hanging": 1724,
      "sky": 1725,
      "child": 1726,
      "wall": 1727,
      "fresh": 1728,
      "piss": 1729,
      "gun": 1730,
      "radio": 1731,
      "spo": 1732,
      "ef": 1733,
      "pie": 1734,
      "round": 1735,
      "celebr": 1736,
      "shirt": 1737,
      "ift": 1738,
      "luv": 1739,
      "idk": 1740,
      "ran": 1741,
      "ire": 1742,
      "fant": 1743,
      "igh": 1744,
      "bly": 1745,
      "dm": 1746,
      "message": 1747,
      "website": 1748,
      "aust": 1749,
      "shows": 1750,
      "thursday": 1751,
      "surpr": 1752,
      "att": 1753,
      "during": 1754,
      "nope": 1755,
      "kers": 1756,
      "ering": 1757,
      "google": 1758,
      "absolute": 1759,
      "ond": 1760,
      "support": 1761,
      "present": 1762,
      "different": 1763,
      "learn": 1764,
      "ben": 1765,
      "tha": 1766,
      "enti": 1767,
      "pizz": 1768,
      "espe": 1769,
      "bbq": 1770,
      "july": 1771,
      "ele": 1772,
      "chan": 1773,
      "appreci": 1774,
      "lame": 1775,
      "books": 1776,
      "fans": 1777,
      "hosp": 1778,
      "bt": 1779,
      "hrs": 1780,
      "issu": 1781,
      "sadly": 1782,
      "tel": 1783,
      "heal": 1784,
      "current": 1785,
      "looked": 1786,
      "hee": 1787,
      "fat": 1788,
      "screen": 1789,
      "number": 1790,
      "sims": 1791,
      "turned": 1792,
      "especially": 1793,
      "deal": 1794,
      "pack": 1795,
      "nick": 1796,
      "tem": 1797,
      "mate": 1798,
      "exact": 1799,
      "front": 1800,
      "fren": 1801,
      "arri": 1802,
      "lone": 1803,
      "shall": 1804,
      "joh": 1805,
      "chicken": 1806,
      "fab": 1807,
      "yummy": 1808,
      "havent": 1809,
      "figure": 1810,
      "tech": 1811,
      "hahahaha": 1812,
      "mix": 1813,
      "allow": 1814,
      "cont": 1815,
      "each": 1816,
      "def": 1817,
      "tist": 1818,
      "followfriday": 1819,
      "random": 1820,
      "stomach": 1821,
      "inside": 1822,
      "fest": 1823,
      "sell": 1824,
      "jus": 1825,
      "vy": 1826,
      "mins": 1827,
      "meant": 1828,
      "fact": 1829,
      "camera": 1830,
      "alright": 1831,
      "hy": 1832,
      "games": 1833,
      "pizza": 1834,
      "cred": 1835,
      "cas": 1836,
      "cid": 1837,
      "memor": 1838,
      "dang": 1839,
      "plain": 1840,
      "van": 1841,
      "bow": 1842,
      "uuuu": 1843,
      "wife": 1844,
      "airport": 1845,
      "cheese": 1846,
      "crying": 1847,
      "episode": 1848,
      "yup": 1849,
      "save": 1850,
      "bike": 1851,
      "usted": 1852,
      "liked": 1853,
      "club": 1854,
      "except": 1855,
      "cri": 1856,
      "packing": 1857,
      "officially": 1858,
      "photos": 1859,
      "lla": 1860,
      "gosh": 1861,
      "ima": 1862,
      "boyfriend": 1863,
      "geous": 1864,
      "ican": 1865,
      "smell": 1866,
      "sam": 1867,
      "lent": 1868,
      "argh": 1869,
      "rainy": 1870,
      "ctive": 1871,
      "llen": 1872,
      "nie": 1873,
      "felt": 1874,
      "graduation": 1875,
      "bas": 1876,
      "nin": 1877,
      "loo": 1878,
      "resp": 1879,
      "fy": 1880,
      "shoes": 1881,
      "wedn": 1882,
      "hmmm": 1883,
      "decided": 1884,
      "hubby": 1885,
      "hind": 1886,
      "doctor": 1887,
      "exper": 1888,
      "proud": 1889,
      "que": 1890,
      "ier": 1891,
      "hug": 1892,
      "addic": 1893,
      "worked": 1894,
      "brothers": 1895,
      "lia": 1896,
      "finals": 1897,
      "twilight": 1898,
      "gig": 1899,
      "lies": 1900,
      "kiss": 1901,
      "pull": 1902,
      "cs": 1903,
      "dge": 1904,
      "vill": 1905,
      "fever": 1906,
      "dia": 1907,
      "whate": 1908,
      "john": 1909,
      "wine": 1910,
      "bee": 1911,
      "sold": 1912,
      "deck": 1913,
      "sum": 1914,
      "played": 1915,
      "interview": 1916,
      "mel": 1917,
      "gee": 1918,
      "rele": 1919,
      "needed": 1920,
      "hospital": 1921,
      "ppy": 1922,
      "ilar": 1923,
      "umb": 1924,
      "absolutely": 1925,
      "throw": 1926,
      "ford": 1927,
      "yourself": 1928,
      "hah": 1929,
      "living": 1930,
      "share": 1931,
      "tay": 1932,
      "uh": 1933,
      "mention": 1934,
      "gorgeous": 1935,
      "pink": 1936,
      "vir": 1937,
      "oun": 1938,
      "wednesday": 1939,
      "french": 1940,
      "cross": 1941,
      "len": 1942,
      "bath": 1943,
      "ulous": 1944,
      "rel": 1945,
      "mes": 1946,
      "wood": 1947,
      "ann": 1948,
      "peace": 1949,
      "exciting": 1950,
      "shoot": 1951,
      "install": 1952,
      "pub": 1953,
      "keeps": 1954,
      "ila": 1955,
      "taken": 1956,
      "ild": 1957,
      "wishes": 1958,
      "disappoint": 1959,
      "ughter": 1960,
      "possible": 1961,
      "dire": 1962,
      "exha": 1963,
      "yyy": 1964,
      "lonely": 1965,
      "business": 1966,
      "apart": 1967,
      "ending": 1968,
      "note": 1969,
      "eh": 1970,
      "guit": 1971,
      "sar": 1972,
      "deser": 1973,
      "mode": 1974,
      "iz": 1975,
      "bon": 1976,
      "sand": 1977,
      "drunk": 1978,
      "emp": 1979,
      "zzzz": 1980,
      "mill": 1981,
      "arm": 1982,
      "scary": 1983,
      "ties": 1984,
      "starts": 1985,
      "thes": 1986,
      "log": 1987,
      "service": 1988,
      "ments": 1989,
      "feet": 1990,
      "appe": 1991,
      "fla": 1992,
      "goodbye": 1993,
      "poo": 1994,
      "hates": 1995,
      "vol": 1996,
      "bucks": 1997,
      "gay": 1998,
      "exactly": 1999,
      "ham": 2000,
      "ray": 2001,
      "along": 2002,
      "grou": 2003,
      "det": 2004,
      "behind": 2005,
      "realized": 2006,
      "happens": 2007,
      "thin": 2008,
      "host": 2009,
      "speak": 2010,
      "wat": 2011,
      "vent": 2012,
      "ical": 2013,
      "pes": 2014,
      "giving": 2015,
      "question": 2016,
      "rew": 2017,
      "lli": 2018,
      "west": 2019,
      "film": 2020,
      "edu": 2021,
      "ada": 2022,
      "knows": 2023,
      "track": 2024,
      "trans": 2025,
      "whatever": 2026,
      "ative": 2027,
      "gettin": 2028,
      "cious": 2029,
      "gut": 2030,
      "dying": 2031,
      "company": 2032,
      "walking": 2033,
      "guitar": 2034,
      "table": 2035,
      "aller": 2036,
      "although": 2037,
      "cali": 2038,
      "waking": 2039,
      "rob": 2040,
      "imag": 2041,
      "vegas": 2042,
      "gging": 2043,
      "astic": 2044,
      "wwww": 2045,
      "annoying": 2046,
      "eeeeeeee": 2047,
      "tummy": 2048,
      "shut": 2049,
      "lose": 2050,
      "everybody": 2051,
      "yours": 2052,
      "ohh": 2053,
      "alot": 2054,
      "jum": 2055,
      "posit": 2056,
      "extra": 2057,
      "dark": 2058,
      "ses": 2059,
      "burnt": 2060,
      "dat": 2061,
      "vic": 2062,
      "isnt": 2063,
      "clothes": 2064,
      "version": 2065,
      "health": 2066,
      "resu": 2067,
      "ents": 2068,
      "dio": 2069,
      "plane": 2070,
      "sli": 2071,
      "death": 2072,
      "cc": 2073,
      "fill": 2074,
      "relaxing": 2075,
      "mming": 2076,
      "killing": 2077,
      "state": 2078,
      "jer": 2079,
      "gram": 2080,
      "nights": 2081,
      "street": 2082,
      "fantastic": 2083,
      "col": 2084,
      "bay": 2085,
      "ado": 2086,
      "minute": 2087,
      "mob": 2088,
      "ession": 2089,
      "tween": 2090,
      "bag": 2091,
      "ano": 2092,
      "huh": 2093,
      "bank": 2094,
      "san": 2095,
      "bal": 2096,
      "ror": 2097,
      "main": 2098,
      "pc": 2099,
      "market": 2100,
      "aint": 2101,
      "enjoyed": 2102,
      "wind": 2103,
      "non": 2104,
      "hat": 2105,
      "videos": 2106,
      "passed": 2107,
      "clear": 2108,
      "dig": 2109,
      "yum": 2110,
      "terrible": 2111,
      "vious": 2112,
      "record": 2113,
      "posted": 2114,
      "__": 2115,
      "ahead": 2116,
      "lan": 2117,
      "pal": 2118,
      "brain": 2119,
      "straight": 2120,
      "cough": 2121,
      "coz": 2122,
      "trou": 2123,
      "spot": 2124,
      "shi": 2125,
      "between": 2126,
      "mommy": 2127,
      "spir": 2128,
      "staying": 2129,
      "mall": 2130,
      "ki": 2131,
      "single": 2132,
      "dest": 2133,
      "ield": 2134,
      "build": 2135,
      "ited": 2136,
      "daughter": 2137,
      "country": 2138,
      "mothers": 2139,
      "lakers": 2140,
      "revision": 2141,
      "color": 2142,
      "singing": 2143,
      "hangover": 2144,
      "lately": 2145,
      "shar": 2146,
      "heat": 2147,
      "ava": 2148,
      "wearing": 2149,
      "dies": 2150,
      "gust": 2151,
      "indeed": 2152,
      "history": 2153,
      "asked": 2154,
      "ooh": 2155,
      "shin": 2156,
      "shot": 2157,
      "ext": 2158,
      "ging": 2159,
      "bummed": 2160,
      "chu": 2161,
      "jack": 2162,
      "headed": 2163,
      "orts": 2164,
      "ork": 2165,
      "fml": 2166,
      "cheer": 2167,
      "trail": 2168,
      "nel": 2169,
      "hus": 2170,
      "smo": 2171,
      "kat": 2172,
      "doll": 2173,
      "usually": 2174,
      "ings": 2175,
      "hon": 2176,
      "fut": 2177,
      "nose": 2178,
      "cakes": 2179,
      "changed": 2180,
      "major": 2181,
      "dvd": 2182,
      "sug": 2183,
      "llll": 2184,
      "profile": 2185,
      "cident": 2186,
      "trouble": 2187,
      "cru": 2188,
      "hotel": 2189,
      "freaking": 2190,
      "hay": 2191,
      "daddy": 2192,
      "ically": 2193,
      "rd": 2194,
      "completely": 2195,
      "bloody": 2196,
      "nobody": 2197,
      "nut": 2198,
      "logy": 2199,
      "dogs": 2200,
      "begin": 2201,
      "prin": 2202,
      "hav": 2203,
      "sss": 2204,
      "mend": 2205,
      "feed": 2206,
      "awful": 2207,
      "bun": 2208,
      "nia": 2209,
      "type": 2210,
      "south": 2211,
      "ffic": 2212,
      "unes": 2213,
      "watchin": 2214,
      "law": 2215,
      "ville": 2216,
      "moved": 2217,
      "bc": 2218,
      "kar": 2219,
      "sexy": 2220,
      "cousin": 2221,
      "worried": 2222,
      "mcfly": 2223,
      "disappointed": 2224,
      "dle": 2225,
      "none": 2226,
      "fingers": 2227,
      "grade": 2228,
      "ruin": 2229,
      "euro": 2230,
      "currently": 2231,
      "rece": 2232,
      "chris": 2233,
      "taylor": 2234,
      "oc": 2235,
      "design": 2236,
      "blah": 2237,
      "onto": 2238,
      "rrr": 2239,
      "austra": 2240,
      "others": 2241,
      "bright": 2242,
      "info": 2243,
      "proper": 2244,
      "chic": 2245,
      "yr": 2246,
      "traffic": 2247,
      "disney": 2248,
      "closed": 2249,
      "somewhere": 2250,
      "nyc": 2251,
      "pissed": 2252,
      "cam": 2253,
      "young": 2254,
      "caught": 2255,
      "nearly": 2256,
      "four": 2257,
      "spending": 2258,
      "wk": 2259,
      "tiv": 2260,
      "spam": 2261,
      "exhausted": 2262,
      "dunno": 2263,
      "congrat": 2264,
      "storm": 2265,
      "mobile": 2266,
      "itunes": 2267,
      "joe": 2268,
      "double": 2269,
      "matter": 2270,
      "mouth": 2271,
      "nah": 2272,
      "fixed": 2273,
      "raid": 2274,
      "sort": 2275,
      "hands": 2276,
      "atta": 2277,
      "woman": 2278,
      "magic": 2279,
      "lm": 2280,
      "neigh": 2281,
      "suggest": 2282,
      "chillin": 2283,
      "ler": 2284,
      "gggg": 2285,
      "milk": 2286,
      "group": 2287,
      "problems": 2288,
      "takes": 2289,
      "bf": 2290,
      "future": 2291,
      "ili": 2292,
      "demi": 2293,
      "maths": 2294,
      "blast": 2295,
      "fed": 2296,
      "wet": 2297,
      "hilar": 2298,
      "ftw": 2299,
      "shout": 2300,
      "fro": 2301,
      "sale": 2302,
      "desk": 2303,
      "sooooo": 2304,
      "wise": 2305,
      "ener": 2306,
      "fox": 2307,
      "fol": 2308,
      "oooooo": 2309,
      "theres": 2310,
      "suc": 2311,
      "jen": 2312,
      "quiet": 2313,
      "husband": 2314,
      "kate": 2315,
      "normal": 2316,
      "windows": 2317,
      "bour": 2318,
      "silly": 2319,
      "honey": 2320,
      "stal": 2321,
      "ston": 2322,
      "tweetdeck": 2323,
      "apo": 2324,
      "manag": 2325,
      "appreciate": 2326,
      "stopped": 2327,
      "www": 2328,
      "drop": 2329,
      "bio": 2330,
      "sna": 2331,
      "neck": 2332,
      "window": 2333,
      "christ": 2334,
      "usual": 2335,
      "cap": 2336,
      "match": 2337,
      "gri": 2338,
      "commend": 2339,
      "bull": 2340,
      "bill": 2341,
      "base": 2342,
      "cting": 2343,
      "iling": 2344,
      "ud": 2345,
      "rus": 2346,
      "ends": 2347,
      "etc": 2348,
      "secre": 2349,
      "blackberry": 2350,
      "training": 2351,
      "consid": 2352,
      "epic": 2353,
      "sense": 2354,
      "soft": 2355,
      "accident": 2356,
      "ctice": 2357,
      "swimming": 2358,
      "aaaaaaaa": 2359,
      "pin": 2360,
      "contin": 2361,
      "practice": 2362,
      "recommend": 2363,
      "american": 2364,
      "laying": 2365,
      "availa": 2366,
      "dancing": 2367,
      "doin": 2368,
      "background": 2369,
      "puppy": 2370,
      "tat": 2371,
      "flat": 2372,
      "planning": 2373,
      "sea": 2374,
      "adam": 2375,
      "talent": 2376,
      "pair": 2377,
      "mini": 2378,
      "middle": 2379,
      "review": 2380,
      "tery": 2381,
      "thru": 2382,
      "classes": 2383,
      "hone": 2384,
      "spring": 2385,
      "sity": 2386,
      "tit": 2387,
      "congratul": 2388,
      "hood": 2389,
      "xi": 2390,
      "ising": 2391,
      "square": 2392,
      "mont": 2393,
      "bummer": 2394,
      "hilarious": 2395,
      "dom": 2396,
      "phones": 2397,
      "certain": 2398,
      "available": 2399,
      "schedu": 2400,
      "writ": 2401,
      "jk": 2402,
      "calling": 2403,
      "chel": 2404,
      "import": 2405,
      "cancell": 2406,
      "doubt": 2407,
      "cher": 2408,
      "braz": 2409,
      "jay": 2410,
      "often": 2411,
      "gener": 2412,
      "ron": 2413,
      "degre": 2414,
      "nation": 2415,
      "series": 2416,
      "field": 2417,
      "hes": 2418,
      "yah": 2419,
      "oops": 2420,
      "bel": 2421,
      "tice": 2422,
      "expen": 2423,
      "inten": 2424,
      "rac": 2425,
      "ison": 2426,
      "seat": 2427,
      "favour": 2428,
      "peeps": 2429,
      "hills": 2430,
      "stat": 2431,
      "stri": 2432,
      "lead": 2433,
      "taste": 2434,
      "alex": 2435,
      "hanna": 2436,
      "copy": 2437,
      "laund": 2438,
      "failed": 2439,
      "prob": 2440,
      "legs": 2441,
      "france": 2442,
      "success": 2443,
      "conta": 2444,
      "skin": 2445,
      "trek": 2446,
      "ior": 2447,
      "phe": 2448,
      "ature": 2449,
      "paid": 2450,
      "block": 2451,
      "miles": 2452,
      "thoughts": 2453,
      "ered": 2454,
      "eng": 2455,
      "lake": 2456,
      "badly": 2457,
      "dc": 2458,
      "dry": 2459,
      "hasn": 2460,
      "confused": 2461,
      "starbucks": 2462,
      "clou": 2463,
      "glasses": 2464,
      "code": 2465,
      "trailer": 2466,
      "push": 2467,
      "laundry": 2468,
      "teeth": 2469,
      "jes": 2470,
      "putting": 2471,
      "egg": 2472,
      "vous": 2473,
      "hero": 2474,
      "couldnt": 2475,
      "buddy": 2476,
      "bru": 2477,
      "verse": 2478,
      "asking": 2479,
      "strong": 2480,
      "followed": 2481,
      "shes": 2482,
      "gold": 2483,
      "brand": 2484,
      "yall": 2485,
      "race": 2486,
      "anim": 2487,
      "program": 2488,
      "ular": 2489,
      "chicago": 2490,
      "atl": 2491,
      "dropped": 2492,
      "aun": 2493,
      "bother": 2494,
      "choice": 2495,
      "dddd": 2496,
      "covered": 2497,
      "dnt": 2498,
      "return": 2499,
      "arti": 2500,
      "gutted": 2501,
      "suppose": 2502,
      "cost": 2503,
      "sending": 2504,
      "station": 2505,
      "bare": 2506,
      "gro": 2507,
      "learning": 2508,
      "dentist": 2509,
      "knee": 2510,
      "bff": 2511,
      "emo": 2512,
      "anda": 2513,
      "anyways": 2514,
      "ahhhhh": 2515,
      "honest": 2516,
      "button": 2517,
      "darn": 2518,
      "som": 2519,
      "loads": 2520,
      "yard": 2521,
      "wasnt": 2522,
      "feelin": 2523,
      "helping": 2524,
      "spell": 2525,
      "sted": 2526,
      "cts": 2527,
      "flow": 2528,
      "australia": 2529,
      "nervous": 2530,
      "crack": 2531,
      "germany": 2532,
      "cancelled": 2533,
      "hm": 2534,
      "bug": 2535,
      "likes": 2536,
      "gged": 2537,
      "msn": 2538,
      "entire": 2539,
      "earth": 2540,
      "lines": 2541,
      "style": 2542,
      "floor": 2543,
      "channel": 2544,
      "congratulations": 2545,
      "orig": 2546,
      "kidding": 2547,
      "stud": 2548,
      "checking": 2549,
      "pee": 2550,
      "nic": 2551,
      "gue": 2552,
      "ded": 2553,
      "exc": 2554,
      "swine": 2555,
      "bunch": 2556,
      "depressed": 2557,
      "five": 2558,
      "shouldn": 2559,
      "ctions": 2560,
      "trend": 2561,
      "holy": 2562,
      "kay": 2563,
      "woot": 2564,
      "plz": 2565,
      "ahhhh": 2566,
      "av": 2567,
      "issues": 2568,
      "keeping": 2569,
      "bing": 2570,
      "boss": 2571,
      "step": 2572,
      "thunder": 2573,
      "notic": 2574,
      "ador": 2575,
      "important": 2576,
      "afraid": 2577,
      "hr": 2578,
      "york": 2579,
      "cky": 2580,
      "extreme": 2581,
      "secret": 2582,
      "versity": 2583,
      "ustr": 2584,
      "impress": 2585,
      "ideas": 2586,
      "za": 2587,
      "bird": 2588,
      "lat": 2589,
      "scr": 2590,
      "falling": 2591,
      "kitty": 2592,
      "mart": 2593,
      "personal": 2594,
      "everyday": 2595,
      "hook": 2596,
      "tar": 2597,
      "inclu": 2598,
      "cried": 2599,
      "ami": 2600,
      "twittering": 2601,
      "killed": 2602,
      "syste": 2603,
      "calls": 2604,
      "social": 2605,
      "buying": 2606,
      "become": 2607,
      "somebody": 2608,
      "article": 2609,
      "xbox": 2610,
      "august": 2611,
      "allowed": 2612,
      "master": 2613,
      "island": 2614,
      "cla": 2615,
      "hill": 2616,
      "reach": 2617,
      "hannah": 2618,
      "coo": 2619,
      "unless": 2620,
      "finding": 2621,
      "bottle": 2622,
      "freakin": 2623,
      "howe": 2624,
      "ladies": 2625,
      "midnight": 2626,
      "mama": 2627,
      "arrived": 2628,
      "lver": 2629,
      "allerg": 2630,
      "morow": 2631,
      "span": 2632,
      "temp": 2633,
      "expensive": 2634,
      "mass": 2635,
      "nu": 2636,
      "rocks": 2637,
      "tori": 2638,
      "telling": 2639,
      "oooh": 2640,
      "danny": 2641,
      "bear": 2642,
      "jour": 2643,
      "assign": 2644,
      "promise": 2645,
      "area": 2646,
      "losing": 2647,
      "workout": 2648,
      "breaking": 2649,
      "stru": 2650,
      "lied": 2651,
      "delicious": 2652,
      "checked": 2653,
      "bre": 2654,
      "cree": 2655,
      "loud": 2656,
      "libr": 2657,
      "tooth": 2658,
      "lip": 2659,
      "tweeps": 2660,
      "however": 2661,
      "anywhere": 2662,
      "tttt": 2663,
      "fra": 2664,
      "snow": 2665,
      "weight": 2666,
      "respon": 2667,
      "shift": 2668,
      "dep": 2669,
      "dir": 2670,
      "swe": 2671,
      "sni": 2672,
      "updated": 2673,
      "depressing": 2674,
      "jb": 2675,
      "ene": 2676,
      "ns": 2677,
      "ches": 2678,
      "iv": 2679,
      "bell": 2680,
      "happening": 2681,
      "against": 2682,
      "essay": 2683,
      "wis": 2684,
      "lov": 2685,
      "aha": 2686,
      "sey": 2687,
      "sunburn": 2688,
      "positive": 2689,
      "afford": 2690,
      "pants": 2691,
      "outta": 2692,
      "wro": 2693,
      "gotten": 2694,
      "joke": 2695,
      "tonite": 2696,
      "bey": 2697,
      "favourite": 2698,
      "iron": 2699,
      "trust": 2700,
      "ol": 2701,
      "wha": 2702,
      "official": 2703,
      "loss": 2704,
      "appro": 2705,
      "cats": 2706,
      "lack": 2707,
      "gal": 2708,
      "experience": 2709,
      "showing": 2710,
      "crappy": 2711,
      "energy": 2712,
      "tough": 2713,
      "stage": 2714,
      "finger": 2715,
      "butter": 2716,
      "max": 2717,
      "thanx": 2718,
      "frustr": 2719,
      "poin": 2720,
      "opp": 2721,
      "pls": 2722,
      "price": 2723,
      "twice": 2724,
      "corre": 2725,
      "entertain": 2726,
      "misses": 2727,
      "wii": 2728,
      "studio": 2729,
      "brought": 2730,
      "fault": 2731,
      "tive": 2732,
      "cookies": 2733,
      "science": 2734,
      "ference": 2735,
      "cooking": 2736,
      "ged": 2737,
      "charac": 2738,
      "bang": 2739,
      "cheers": 2740,
      "sushi": 2741,
      "strange": 2742,
      "stayed": 2743,
      "empty": 2744,
      "folks": 2745,
      "mornin": 2746,
      "productive": 2747,
      "gunna": 2748,
      "roy": 2749,
      "wanting": 2750,
      "file": 2751,
      "talked": 2752,
      "noooo": 2753,
      "slight": 2754,
      "added": 2755,
      "cab": 2756,
      "public": 2757,
      "anti": 2758,
      "wrote": 2759,
      "ku": 2760,
      "straw": 2761,
      "origin": 2762,
      "bble": 2763,
      "direct": 2764,
      "imagine": 2765,
      "ator": 2766,
      "dden": 2767,
      "million": 2768,
      "north": 2769,
      "america": 2770,
      "england": 2771,
      "library": 2772,
      "messages": 2773,
      "gur": 2774,
      "travel": 2775,
      "recent": 2776,
      "ida": 2777,
      "pper": 2778,
      "diet": 2779,
      "cudd": 2780,
      "tag": 2781,
      "mul": 2782,
      "brazil": 2783,
      "zer": 2784,
      "hehehe": 2785,
      "turning": 2786,
      "switch": 2787,
      "bert": 2788,
      "sometime": 2789,
      "tions": 2790,
      "excell": 2791,
      "ible": 2792,
      "tempt": 2793,
      "dumb": 2794,
      "local": 2795,
      "japan": 2796,
      "fave": 2797,
      "fort": 2798,
      "scri": 2799,
      "athon": 2800,
      "piece": 2801,
      "six": 2802,
      "kitch": 2803,
      "report": 2804,
      "finale": 2805,
      "tran": 2806,
      "woohoo": 2807,
      "ply": 2808,
      "session": 2809,
      "media": 2810,
      "vet": 2811,
      "psy": 2812,
      "organ": 2813,
      "velo": 2814,
      "sie": 2815,
      "drinks": 2816,
      "corn": 2817,
      "paris": 2818,
      "nc": 2819,
      "noticed": 2820,
      "butt": 2821,
      "zzy": 2822,
      "ith": 2823,
      "ities": 2824,
      "tweeted": 2825,
      "flor": 2826,
      "vor": 2827,
      "couch": 2828,
      "ai": 2829,
      "gift": 2830,
      "lee": 2831,
      "tmr": 2832,
      "follower": 2833,
      "cance": 2834,
      "alive": 2835,
      "release": 2836,
      "sel": 2837,
      "idi": 2838,
      "liter": 2839,
      "adorable": 2840,
      "suff": 2841,
      "nails": 2842,
      "excellent": 2843,
      "women": 2844,
      "ordered": 2845,
      "tons": 2846,
      "kitchen": 2847,
      "player": 2848,
      "eeeee": 2849,
      "soup": 2850,
      "swear": 2851,
      "tears": 2852,
      "prep": 2853,
      "mare": 2854,
      "exp": 2855,
      "picked": 2856,
      "system": 2857,
      "fle": 2858,
      "battery": 2859,
      "everywhere": 2860,
      "obvious": 2861,
      "limit": 2862,
      "boat": 2863,
      "ived": 2864,
      "bread": 2865,
      "brilli": 2866,
      "grandma": 2867,
      "crow": 2868,
      "machine": 2869,
      "soc": 2870,
      "aster": 2871,
      "haps": 2872,
      "sweetie": 2873,
      "thn": 2874,
      "rol": 2875,
      "dammit": 2876,
      "gah": 2877,
      "whe": 2878,
      "stair": 2879,
      "kept": 2880,
      "ohhh": 2881,
      "drama": 2882,
      "moms": 2883,
      "ppin": 2884,
      "smart": 2885,
      "diffic": 2886,
      "aking": 2887,
      "jim": 2888,
      "itting": 2889,
      "canada": 2890,
      "matt": 2891,
      "phys": 2892,
      "brown": 2893,
      "loy": 2894,
      "expect": 2895,
      "fabulous": 2896,
      "holly": 2897,
      "goodness": 2898,
      "geor": 2899,
      "soul": 2900,
      "cin": 2901,
      "ryan": 2902,
      "deep": 2903,
      "total": 2904,
      "heh": 2905,
      "delay": 2906,
      "catching": 2907,
      "children": 2908,
      "ctic": 2909,
      "lts": 2910,
      "harry": 2911,
      "ric": 2912,
      "lord": 2913,
      "swim": 2914,
      "nnnn": 2915,
      "barely": 2916,
      "speed": 2917,
      "perhaps": 2918,
      "brilliant": 2919,
      "ased": 2920,
      "weekends": 2921,
      "tenn": 2922,
      "washing": 2923,
      "size": 2924,
      "laughing": 2925,
      "craving": 2926,
      "turns": 2927,
      "flying": 2928,
      "coast": 2929,
      "lou": 2930,
      "sudden": 2931,
      "grrr": 2932,
      "rained": 2933,
      "lmfa": 2934,
      "ial": 2935,
      "invite": 2936,
      "rap": 2937,
      "europe": 2938,
      "neighbor": 2939,
      "toast": 2940,
      "schedule": 2941,
      "twitters": 2942,
      "custom": 2943,
      "surprise": 2944,
      "pit": 2945,
      "given": 2946,
      "imma": 2947,
      "ders": 2948,
      "mt": 2949,
      "hurting": 2950,
      "ggy": 2951,
      "ugly": 2952,
      "terri": 2953,
      "gery": 2954,
      "pon": 2955,
      "gers": 2956,
      "incred": 2957,
      "promo": 2958,
      "holidays": 2959,
      "evil": 2960,
      "sir": 2961,
      "golf": 2962,
      "treat": 2963,
      "unders": 2964,
      "marathon": 2965,
      "click": 2966,
      "national": 2967,
      "gent": 2968,
      "deserve": 2969,
      "hole": 2970,
      "scream": 2971,
      "commun": 2972,
      "micha": 2973,
      "lis": 2974,
      "winter": 2975,
      "flash": 2976,
      "chuck": 2977,
      "babys": 2978,
      "chines": 2979,
      "sig": 2980,
      "easier": 2981,
      "issue": 2982,
      "bgt": 2983,
      "nooo": 2984,
      "ram": 2985,
      "fran": 2986,
      "expected": 2987,
      "rout": 2988,
      "lesson": 2989,
      "micro": 2990,
      "sever": 2991,
      "access": 2992,
      "inspir": 2993,
      "steph": 2994,
      "uuu": 2995,
      "stairs": 2996,
      "east": 2997,
      "comments": 2998,
      "qual": 2999,
      "ret": 3000,
      "somehow": 3001,
      "pas": 3002,
      "pres": 3003,
      "ival": 3004,
      "queen": 3005,
      "aga": 3006,
      "prefer": 3007,
      "letting": 3008,
      "spl": 3009,
      "stream": 3010,
      "perfor": 3011,
      "figured": 3012,
      "jess": 3013,
      "request": 3014,
      "chinese": 3015,
      "ese": 3016,
      "wich": 3017,
      "married": 3018,
      "teacher": 3019,
      "whoo": 3020,
      "suit": 3021,
      "eff": 3022,
      "annoyed": 3023,
      "develo": 3024,
      "anta": 3025,
      "muse": 3026,
      "planned": 3027,
      "sharing": 3028,
      "shots": 3029,
      "realize": 3030,
      "football": 3031,
      "soccer": 3032,
      "ility": 3033,
      "juice": 3034,
      "atm": 3035,
      "places": 3036,
      "lives": 3037,
      "apartment": 3038,
      "scratch": 3039,
      "signed": 3040,
      "fake": 3041,
      "nightmare": 3042,
      "babies": 3043,
      "clock": 3044,
      "spanish": 3045,
      "llo": 3046,
      "dev": 3047,
      "cere": 3048,
      "cir": 3049,
      "ughh": 3050,
      "james": 3051,
      "festival": 3052,
      "user": 3053,
      "ggg": 3054,
      "hol": 3055,
      "addicted": 3056,
      "nam": 3057,
      "surgery": 3058,
      "sugar": 3059,
      "helps": 3060,
      "texas": 3061,
      "dj": 3062,
      "ore": 3063,
      "mist": 3064,
      "yi": 3065,
      "mista": 3066,
      "fur": 3067,
      "crush": 3068,
      "phew": 3069,
      "dol": 3070,
      "server": 3071,
      "graphy": 3072,
      "wings": 3073,
      "choo": 3074,
      "daily": 3075,
      "healthy": 3076,
      "meal": 3077,
      "wave": 3078,
      "sting": 3079,
      "sisters": 3080,
      "sniff": 3081,
      "michael": 3082,
      "lookin": 3083,
      "aches": 3084,
      "fru": 3085,
      "spa": 3086,
      "setting": 3087,
      "possibly": 3088,
      "boston": 3089,
      "iii": 3090,
      "simple": 3091,
      "results": 3092,
      "hop": 3093,
      "ung": 3094,
      "toes": 3095,
      "mission": 3096,
      "tear": 3097,
      "ahaha": 3098,
      "extremely": 3099,
      "florida": 3100,
      "kim": 3101,
      "odd": 3102,
      "ites": 3103,
      "transform": 3104,
      "across": 3105,
      "complain": 3106,
      "messed": 3107,
      "cheap": 3108,
      "weak": 3109,
      "gives": 3110,
      "hous": 3111,
      "famous": 3112,
      "ient": 3113,
      "tim": 3114,
      "mike": 3115,
      "degrees": 3116,
      "champ": 3117,
      "shining": 3118,
      "managed": 3119,
      "known": 3120,
      "angry": 3121,
      "workin": 3122,
      "fuckin": 3123,
      "girlfriend": 3124,
      "ety": 3125,
      "memories": 3126,
      "rubb": 3127,
      "elect": 3128,
      "orange": 3129,
      "wild": 3130,
      "mary": 3131,
      "finishing": 3132,
      "multi": 3133,
      "sarah": 3134,
      "sele": 3135,
      "lights": 3136,
      "interested": 3137,
      "mount": 3138,
      "tattoo": 3139,
      "mee": 3140,
      "tree": 3141,
      "heck": 3142,
      "del": 3143,
      "ural": 3144,
      "chester": 3145,
      "nal": 3146,
      "shoo": 3147,
      "scar": 3148,
      "ruined": 3149,
      "difficult": 3150,
      "ups": 3151,
      "uses": 3152,
      "txt": 3153,
      "lying": 3154,
      "miser": 3155,
      "connection": 3156,
      "notice": 3157,
      "grey": 3158,
      "reality": 3159,
      "cine": 3160,
      "blocked": 3161,
      "quit": 3162,
      "ished": 3163,
      "pix": 3164,
      "voted": 3165,
      "ridic": 3166,
      "obs": 3167,
      "nasty": 3168,
      "paint": 3169,
      "wide": 3170,
      "truly": 3171,
      "appear": 3172,
      "dut": 3173,
      "youre": 3174,
      "kevin": 3175,
      "dele": 3176,
      "waste": 3177,
      "sites": 3178,
      "posting": 3179,
      "las": 3180,
      "hearing": 3181,
      "sides": 3182,
      "squarespace": 3183,
      "ump": 3184,
      "dist": 3185,
      "syd": 3186,
      "iran": 3187,
      "lived": 3188,
      "auto": 3189,
      "laure": 3190,
      "vision": 3191,
      "chap": 3192,
      "questions": 3193,
      "cable": 3194,
      "gross": 3195,
      "contest": 3196,
      "shitty": 3197,
      "centr": 3198,
      "rich": 3199,
      "sport": 3200,
      "stone": 3201,
      "mostly": 3202,
      "venture": 3203,
      "yrs": 3204,
      "fucked": 3205,
      "dru": 3206,
      "pour": 3207,
      "offer": 3208,
      "weren": 3209,
      "drag": 3210,
      "deta": 3211,
      "worries": 3212,
      "grr": 3213,
      "zoo": 3214,
      "rice": 3215,
      "blame": 3216,
      "painting": 3217,
      "salad": 3218,
      "heavy": 3219,
      "ino": 3220,
      "reli": 3221,
      "termin": 3222,
      "lmfao": 3223,
      "hows": 3224,
      "anytime": 3225,
      "walked": 3226,
      "awhile": 3227,
      "revising": 3228,
      "loc": 3229,
      "ount": 3230,
      "lled": 3231,
      "motiv": 3232,
      "tiny": 3233,
      "smh": 3234,
      "smoo": 3235,
      "advice": 3236,
      "manage": 3237,
      "rise": 3238,
      "shee": 3239,
      "mondays": 3240,
      "uncle": 3241,
      "leaves": 3242,
      "macbook": 3243,
      "cards": 3244,
      "blessed": 3245,
      "pleasure": 3246,
      "bie": 3247,
      "dave": 3248,
      "atten": 3249,
      "latest": 3250,
      "wers": 3251,
      "abt": 3252,
      "accept": 3253,
      "control": 3254,
      "decide": 3255,
      "urgh": 3256,
      "jump": 3257,
      "ution": 3258,
      "rious": 3259,
      "dition": 3260,
      "rite": 3261,
      "pulled": 3262,
      "trending": 3263,
      "cro": 3264,
      "decis": 3265,
      "aur": 3266,
      "stink": 3267,
      "otherwise": 3268,
      "compet": 3269,
      "avo": 3270,
      "dish": 3271,
      "massive": 3272,
      "lam": 3273,
      "anni": 3274,
      "launch": 3275,
      "prepar": 3276,
      "celebrate": 3277,
      "biggest": 3278,
      "bin": 3279,
      "sion": 3280,
      "ises": 3281,
      "twitpic": 3282,
      "learned": 3283,
      "oper": 3284,
      "coll": 3285,
      "noo": 3286,
      "issa": 3287,
      "regu": 3288,
      "conan": 3289,
      "beginning": 3290,
      "bust": 3291,
      "tight": 3292,
      "dor": 3293,
      "rush": 3294,
      "reminds": 3295,
      "building": 3296,
      "gger": 3297,
      "arms": 3298,
      "announ": 3299,
      "zen": 3300,
      "error": 3301,
      "dirty": 3302,
      "itor": 3303,
      "convers": 3304,
      "crossed": 3305,
      "episodes": 3306,
      "credit": 3307,
      "shake": 3308,
      "explain": 3309,
      "sau": 3310,
      "cash": 3311,
      "level": 3312,
      "wen": 3313,
      "ched": 3314,
      "anybody": 3315,
      "cousins": 3316,
      "aim": 3317,
      "chilling": 3318,
      "geo": 3319,
      "trave": 3320,
      "updating": 3321,
      "balls": 3322,
      "letter": 3323,
      "ury": 3324,
      "conference": 3325,
      "gooo": 3326,
      "brad": 3327,
      "rah": 3328,
      "califor": 3329,
      "wah": 3330,
      "center": 3331,
      "fathers": 3332,
      "ark": 3333,
      "literally": 3334,
      "performan": 3335,
      "attention": 3336,
      "ddd": 3337,
      "stars": 3338,
      "client": 3339,
      "praying": 3340,
      "diversity": 3341,
      "heaven": 3342,
      "slightly": 3343,
      "process": 3344,
      "painful": 3345,
      "tht": 3346,
      "links": 3347,
      "rup": 3348,
      "delet": 3349,
      "packed": 3350,
      "obviously": 3351,
      "arr": 3352,
      "jesus": 3353,
      "fear": 3354,
      "gaz": 3355,
      "baseball": 3356,
      "ridiculous": 3357,
      "ugg": 3358,
      "agre": 3359,
      "closer": 3360,
      "kris": 3361,
      "tis": 3362,
      "guil": 3363,
      "ew": 3364,
      "knowing": 3365,
      "pig": 3366,
      "pages": 3367,
      "sour": 3368,
      "fellow": 3369,
      "reco": 3370,
      "everytime": 3371,
      "distra": 3372,
      "born": 3373,
      "mile": 3374,
      "senior": 3375,
      "fash": 3376,
      "repe": 3377,
      "rome": 3378,
      "german": 3379,
      "mates": 3380,
      "alarm": 3381,
      "action": 3382,
      "surv": 3383,
      "hella": 3384,
      "hhhhhhhh": 3385,
      "ik": 3386,
      "moro": 3387,
      "acting": 3388,
      "apps": 3389,
      "pun": 3390,
      "asap": 3391,
      "quote": 3392,
      "exist": 3393,
      "older": 3394,
      "human": 3395,
      "jan": 3396,
      "upgrade": 3397,
      "tm": 3398,
      "tes": 3399,
      "ari": 3400,
      "spi": 3401,
      "josh": 3402,
      "aaay": 3403,
      "truck": 3404,
      "research": 3405,
      "sports": 3406,
      "booo": 3407,
      "whee": 3408,
      "flowers": 3409,
      "correct": 3410,
      "rage": 3411,
      "fashion": 3412,
      "gain": 3413,
      "ita": 3414,
      "slee": 3415,
      "desper": 3416,
      "ski": 3417,
      "gif": 3418,
      "iam": 3419,
      "lv": 3420,
      "rub": 3421,
      "chair": 3422,
      "commer": 3423,
      "deleted": 3424,
      "topic": 3425,
      "ory": 3426,
      "susan": 3427,
      "mur": 3428,
      "meh": 3429,
      "challen": 3430,
      "aunt": 3431,
      "original": 3432,
      "hopes": 3433,
      "lovin": 3434,
      "tix": 3435,
      "confir": 3436,
      "regre": 3437,
      "core": 3438,
      "hurry": 3439,
      "opening": 3440,
      "transformers": 3441,
      "ime": 3442,
      "bers": 3443,
      "mos": 3444,
      "california": 3445,
      "keys": 3446,
      "iest": 3447,
      "soooooo": 3448,
      "tennis": 3449,
      "alco": 3450,
      "montana": 3451,
      "ears": 3452,
      "kicked": 3453,
      "quality": 3454,
      "third": 3455,
      "tos": 3456,
      "stic": 3457,
      "phili": 3458,
      "status": 3459,
      "bob": 3460,
      "flick": 3461,
      "hid": 3462,
      "wire": 3463,
      "broad": 3464,
      "cape": 3465,
      "quickly": 3466,
      "surprised": 3467,
      "contact": 3468,
      "wl": 3469,
      "feature": 3470,
      "softw": 3471,
      "freezing": 3472,
      "joined": 3473,
      "dem": 3474,
      "handle": 3475,
      "idiot": 3476,
      "sydney": 3477,
      "eaten": 3478,
      "bask": 3479,
      "network": 3480,
      "tip": 3481,
      "fighting": 3482,
      "ghost": 3483,
      "ware": 3484,
      "pound": 3485,
      "regi": 3486,
      "liking": 3487,
      "software": 3488,
      "jet": 3489,
      "igno": 3490,
      "soci": 3491,
      "restaur": 3492,
      "crashed": 3493,
      "grocer": 3494,
      "erc": 3495,
      "artist": 3496,
      "prayers": 3497,
      "swo": 3498,
      "jobs": 3499,
      "priv": 3500,
      "candy": 3501,
      "stressed": 3502,
      "recently": 3503,
      "aus": 3504,
      "ism": 3505,
      "rot": 3506,
      "adv": 3507,
      "admit": 3508,
      "usa": 3509,
      "sux": 3510,
      "thor": 3511,
      "male": 3512,
      "paul": 3513,
      "nom": 3514,
      "term": 3515,
      "avoid": 3516,
      "lauren": 3517,
      "hd": 3518,
      "ums": 3519,
      "ashley": 3520,
      "wars": 3521,
      "regular": 3522,
      "lling": 3523,
      "ala": 3524,
      "spid": 3525,
      "amaz": 3526,
      "emails": 3527,
      "rof": 3528,
      "sne": 3529,
      "perform": 3530,
      "cancer": 3531,
      "bron": 3532,
      "hahahah": 3533,
      "versary": 3534,
      "counting": 3535,
      "ery": 3536,
      "bacon": 3537,
      "stock": 3538,
      "posts": 3539,
      "haircut": 3540,
      "spin": 3541,
      "decent": 3542,
      "effect": 3543,
      "ffin": 3544,
      "impro": 3545,
      "presentation": 3546,
      "adventure": 3547,
      "burger": 3548,
      "ji": 3549,
      "likely": 3550,
      "fection": 3551,
      "option": 3552,
      "fc": 3553,
      "ense": 3554,
      "ads": 3555,
      "spec": 3556,
      "testing": 3557,
      "sucked": 3558,
      "respond": 3559,
      "plant": 3560,
      "truth": 3561,
      "slowly": 3562,
      "river": 3563,
      "riding": 3564,
      "heads": 3565,
      "hardly": 3566,
      "chips": 3567,
      "points": 3568,
      "gb": 3569,
      "hall": 3570,
      "umm": 3571,
      "visiting": 3572,
      "kitten": 3573,
      "filled": 3574,
      "pill": 3575,
      "toy": 3576,
      "ttt": 3577,
      "doors": 3578,
      "chip": 3579,
      "ckey": 3580,
      "print": 3581,
      "birds": 3582,
      "insane": 3583,
      "uation": 3584,
      "excuse": 3585,
      "goss": 3586,
      "invited": 3587,
      "greet": 3588,
      "angel": 3589,
      "memory": 3590,
      "properly": 3591,
      "ankle": 3592,
      "colour": 3593,
      "wooo": 3594,
      "neither": 3595,
      "names": 3596,
      "performance": 3597,
      "aid": 3598,
      "lemon": 3599,
      "uts": 3600,
      "bah": 3601,
      "downtown": 3602,
      "gling": 3603,
      "doo": 3604,
      "pies": 3605,
      "havin": 3606,
      "lando": 3607,
      "thy": 3608,
      "toe": 3609,
      "tele": 3610,
      "ooooooo": 3611,
      "assignment": 3612,
      "fied": 3613,
      "eeeeee": 3614,
      "realised": 3615,
      "premi": 3616,
      "aaaaa": 3617,
      "attack": 3618,
      "cloudy": 3619,
      "chas": 3620,
      "bomb": 3621,
      "tail": 3622,
      "bugs": 3623,
      "yer": 3624,
      "invol": 3625,
      "lock": 3626,
      "score": 3627,
      "nuts": 3628,
      "impressed": 3629,
      "allergies": 3630,
      "mountain": 3631,
      "smoke": 3632,
      "honestly": 3633,
      "beta": 3634,
      "nies": 3635,
      "sla": 3636,
      "remembered": 3637,
      "scot": 3638,
      "nes": 3639,
      "picking": 3640,
      "shirts": 3641,
      "employ": 3642,
      "thunders": 3643,
      "dressed": 3644,
      "attend": 3645,
      "choose": 3646,
      "ably": 3647,
      "downloading": 3648,
      "tony": 3649,
      "ching": 3650,
      "blank": 3651,
      "paying": 3652,
      "uploading": 3653,
      "idol": 3654,
      "britney": 3655,
      "ax": 3656,
      "youu": 3657,
      "yeh": 3658,
      "scene": 3659,
      "texting": 3660,
      "huhu": 3661,
      "frank": 3662,
      "standing": 3663,
      "goodmorning": 3664,
      "oce": 3665,
      "missin": 3666,
      "exerc": 3667,
      "charge": 3668,
      "clue": 3669,
      "basket": 3670,
      "discus": 3671,
      "sandwich": 3672,
      "fruit": 3673,
      "sf": 3674,
      "donal": 3675,
      "glas": 3676,
      "screwed": 3677,
      "potter": 3678,
      "recording": 3679,
      "model": 3680,
      "rubbish": 3681,
      "recover": 3682,
      "miami": 3683,
      "peter": 3684,
      "anniversary": 3685,
      "preparing": 3686,
      "tests": 3687,
      "awh": 3688,
      "rit": 3689,
      "orlando": 3690,
      "aly": 3691,
      "battle": 3692,
      "growing": 3693,
      "ges": 3694,
      "summ": 3695,
      "cavs": 3696,
      "tryin": 3697,
      "helped": 3698,
      "purple": 3699,
      "doc": 3700,
      "abo": 3701,
      "winning": 3702,
      "vert": 3703,
      "gie": 3704,
      "whenever": 3705,
      "natural": 3706,
      "los": 3707,
      "ras": 3708,
      "grab": 3709,
      "avat": 3710,
      "smooth": 3711,
      "nur": 3712,
      "ert": 3713,
      "locked": 3714,
      "rick": 3715,
      "illa": 3716,
      "stories": 3717,
      "cars": 3718,
      "steal": 3719,
      "bigger": 3720,
      "replies": 3721,
      "hs": 3722,
      "bedtime": 3723,
      "perio": 3724,
      "keyboard": 3725,
      "thunderstor": 3726,
      "notes": 3727,
      "ific": 3728,
      "ggie": 3729,
      "certainly": 3730,
      "details": 3731,
      "nk": 3732,
      "reg": 3733,
      "lif": 3734,
      "hw": 3735,
      "mir": 3736,
      "tb": 3737,
      "rehear": 3738,
      "cock": 3739,
      "inspiration": 3740,
      "refresh": 3741,
      "faster": 3742,
      "cia": 3743,
      "foo": 3744,
      "seconds": 3745,
      "eggs": 3746,
      "sweat": 3747,
      "guest": 3748,
      "stoked": 3749,
      "clip": 3750,
      "philipp": 3751,
      "ughhh": 3752,
      "hen": 3753,
      "insom": 3754,
      "jeans": 3755,
      "dall": 3756,
      "wok": 3757,
      "tire": 3758,
      "revise": 3759,
      "amy": 3760,
      "gd": 3761,
      "replace": 3762,
      "wifi": 3763,
      "smells": 3764,
      "experi": 3765,
      "bli": 3766,
      "coke": 3767,
      "thankyou": 3768,
      "whoa": 3769,
      "speaking": 3770,
      "smiling": 3771,
      "continue": 3772,
      "embar": 3773,
      "meat": 3774,
      "ening": 3775,
      "besides": 3776,
      "dos": 3777,
      "spect": 3778,
      "classic": 3779,
      "museum": 3780,
      "leno": 3781,
      "lau": 3782,
      "court": 3783,
      "mmmmm": 3784,
      "bite": 3785,
      "ebay": 3786,
      "jason": 3787,
      "lem": 3788,
      "crew": 3789,
      "prote": 3790,
      "langu": 3791,
      "theme": 3792,
      "esp": 3793,
      "steve": 3794,
      "woop": 3795,
      "draw": 3796,
      "italy": 3797,
      "ek": 3798,
      "address": 3799,
      "creative": 3800,
      "miserable": 3801,
      "magaz": 3802,
      "rose": 3803,
      "suggestions": 3804,
      "restaurant": 3805,
      "bis": 3806,
      "gf": 3807,
      "nan": 3808,
      "member": 3809,
      "wisdom": 3810,
      "krist": 3811,
      "terminator": 3812,
      "aka": 3813,
      "tmrw": 3814,
      "dallas": 3815,
      "itali": 3816,
      "editing": 3817,
      "princess": 3818,
      "belly": 3819,
      "saved": 3820,
      "tics": 3821,
      "selves": 3822,
      "signing": 3823,
      "qua": 3824,
      "hitting": 3825,
      "amount": 3826,
      "cafe": 3827,
      "eli": 3828,
      "angels": 3829,
      "horse": 3830,
      "received": 3831,
      "sters": 3832,
      "wicked": 3833,
      "spee": 3834,
      "tooo": 3835,
      "student": 3836,
      "sundays": 3837,
      "yuck": 3838,
      "pier": 3839,
      "explo": 3840,
      "lll": 3841,
      "shu": 3842,
      "gress": 3843,
      "lid": 3844,
      "grass": 3845,
      "bubble": 3846,
      "cycle": 3847,
      "cyrus": 3848,
      "camping": 3849,
      "geek": 3850,
      "guilty": 3851,
      "teen": 3852,
      "loser": 3853,
      "bottom": 3854,
      "corner": 3855,
      "alcohol": 3856,
      "beg": 3857,
      "screw": 3858,
      "pancakes": 3859,
      "data": 3860,
      "palm": 3861,
      "fool": 3862,
      "lyn": 3863,
      "focus": 3864,
      "changing": 3865,
      "doctors": 3866,
      "fg": 3867,
      "vio": 3868,
      "reck": 3869,
      "atleast": 3870,
      "tips": 3871,
      "saving": 3872,
      "wouldnt": 3873,
      "activ": 3874,
      "swift": 3875,
      "bathroom": 3876,
      "strawberry": 3877,
      "chemist": 3878,
      "bam": 3879,
      "soph": 3880,
      "seattle": 3881,
      "noooooooo": 3882,
      "asy": 3883,
      "sight": 3884,
      "aaah": 3885,
      "blow": 3886,
      "antly": 3887,
      "caf": 3888,
      "chatting": 3889,
      "burned": 3890,
      "gossip": 3891,
      "metro": 3892,
      "emi": 3893,
      "mah": 3894,
      "toronto": 3895,
      "boot": 3896,
      "fancy": 3897,
      "ners": 3898,
      "kkkk": 3899,
      "justin": 3900,
      "looo": 3901,
      "hip": 3902,
      "snee": 3903,
      "consider": 3904,
      "curious": 3905,
      "jeff": 3906,
      "aching": 3907,
      "sneak": 3908,
      "pad": 3909,
      "nove": 3910,
      "blink": 3911,
      "philippines": 3912,
      "comfor": 3913,
      "spain": 3914,
      "voting": 3915,
      "sep": 3916,
      "arts": 3917,
      "breath": 3918,
      "nood": 3919,
      "inting": 3920,
      "mex": 3921,
      "dads": 3922,
      "ara": 3923,
      "yellow": 3924,
      "intro": 3925,
      "george": 3926,
      "ix": 3927,
      "named": 3928,
      "fac": 3929,
      "ocean": 3930,
      "avatar": 3931,
      "lab": 3932,
      "spread": 3933,
      "harder": 3934,
      "parade": 3935,
      "techno": 3936,
      "continu": 3937,
      "delete": 3938,
      "gam": 3939,
      "skype": 3940,
      "kisses": 3941,
      "released": 3942,
      "izon": 3943,
      "nad": 3944,
      "medic": 3945,
      "cookie": 3946,
      "award": 3947,
      "rie": 3948,
      "jersey": 3949,
      "bourne": 3950,
      "bk": 3951,
      "moo": 3952,
      "mble": 3953,
      "bunny": 3954,
      "considering": 3955,
      "mrs": 3956,
      "ards": 3957,
      "ffff": 3958,
      "practic": 3959,
      "goood": 3960,
      "eral": 3961,
      "nty": 3962,
      "parties": 3963,
      "starving": 3964,
      "gaga": 3965,
      "poli": 3966,
      "rude": 3967,
      "section": 3968,
      "within": 3969,
      "waii": 3970,
      "greate": 3971,
      "migra": 3972,
      "firefox": 3973,
      "tab": 3974,
      "moz": 3975,
      "plu": 3976,
      "gear": 3977,
      "desp": 3978,
      "chase": 3979,
      "threw": 3980,
      "pens": 3981,
      "basically": 3982,
      "punch": 3983,
      "attempt": 3984,
      "convin": 3985,
      "tweeters": 3986,
      "regret": 3987,
      "migraine": 3988,
      "stole": 3989,
      "berries": 3990,
      "heyy": 3991,
      "zzz": 3992,
      "settle": 3993,
      "beauty": 3994,
      "contra": 3995,
      "danie": 3996,
      "ied": 3997,
      "nh": 3998,
      "ees": 3999,
      "demo": 4000,
      "silver": 4001,
      "booked": 4002,
      "banana": 4003,
      "related": 4004,
      "nothin": 4005,
      "actual": 4006,
      "runs": 4007,
      "nnn": 4008,
      "bands": 4009,
      "clouds": 4010,
      "nowhere": 4011,
      "tered": 4012,
      "gloo": 4013,
      "vv": 4014,
      "wd": 4015,
      "zone": 4016,
      "faith": 4017,
      "spy": 4018,
      "essed": 4019,
      "wins": 4020,
      "greatest": 4021,
      "zo": 4022,
      "pol": 4023,
      "situation": 4024,
      "cramp": 4025,
      "tune": 4026,
      "cuddle": 4027,
      "plenty": 4028,
      "mam": 4029,
      "pure": 4030,
      "union": 4031,
      "slo": 4032,
      "asha": 4033,
      "goal": 4034,
      "desig": 4035,
      "appointment": 4036,
      "result": 4037,
      "several": 4038,
      "bridge": 4039,
      "deliver": 4040,
      "bowl": 4041,
      "econ": 4042,
      "boom": 4043,
      "carry": 4044,
      "tommorow": 4045,
      "emotion": 4046,
      "wasted": 4047,
      "happiness": 4048,
      "suddenly": 4049,
      "scare": 4050,
      "muscle": 4051,
      "darling": 4052,
      "written": 4053,
      "nail": 4054,
      "difference": 4055,
      "private": 4056,
      "cale": 4057,
      "ilt": 4058,
      "patient": 4059,
      "massage": 4060,
      "hai": 4061,
      "const": 4062,
      "glor": 4063,
      "mistake": 4064,
      "force": 4065,
      "bags": 4066,
      "pota": 4067,
      "tum": 4068,
      "states": 4069,
      "boyle": 4070,
      "rings": 4071,
      "agreed": 4072,
      "bound": 4073,
      "ption": 4074,
      "icy": 4075,
      "image": 4076,
      "hayfever": 4077,
      "rum": 4078,
      "applic": 4079,
      "period": 4080,
      "meds": 4081,
      "assu": 4082,
      "hide": 4083,
      "alas": 4084,
      "cand": 4085,
      "thinkin": 4086,
      "whether": 4087,
      "wu": 4088,
      "wolver": 4089,
      "climb": 4090,
      "freak": 4091,
      "content": 4092,
      "beyond": 4093,
      "conversation": 4094,
      "az": 4095,
      "ony": 4096,
      "ril": 4097,
      "cot": 4098,
      "bore": 4099,
      "taco": 4100,
      "jail": 4101,
      "grocery": 4102,
      "vamp": 4103,
      "imme": 4104,
      "grrrrr": 4105,
      "talkin": 4106,
      "delayed": 4107,
      "sym": 4108,
      "large": 4109,
      "based": 4110,
      "dates": 4111,
      "china": 4112,
      "burning": 4113,
      "indi": 4114,
      "feelings": 4115,
      "holding": 4116,
      "replied": 4117,
      "chemistry": 4118,
      "ux": 4119,
      "cole": 4120,
      "showed": 4121,
      "loose": 4122,
      "ashed": 4123,
      "podcast": 4124,
      "downloaded": 4125,
      "sauce": 4126,
      "dit": 4127,
      "cow": 4128,
      "demon": 4129,
      "character": 4130,
      "woken": 4131,
      "boooo": 4132,
      "hating": 4133,
      "ius": 4134,
      "kelly": 4135,
      "ices": 4136,
      "ggin": 4137,
      "yoga": 4138,
      "lyri": 4139,
      "function": 4140,
      "cris": 4141,
      "ths": 4142,
      "whil": 4143,
      "lawn": 4144,
      "someday": 4145,
      "shorts": 4146,
      "hadn": 4147,
      "makeup": 4148,
      "searching": 4149,
      "swollen": 4150,
      "mouse": 4151,
      "drove": 4152,
      "texts": 4153,
      "connect": 4154,
      "pose": 4155,
      "aff": 4156,
      "vod": 4157,
      "theat": 4158,
      "bean": 4159,
      "cel": 4160,
      "glo": 4161,
      "zom": 4162,
      "bes": 4163,
      "bage": 4164,
      "driver": 4165,
      "yyyyyyyy": 4166,
      "iiiiiiii": 4167,
      "shooting": 4168,
      "itself": 4169,
      "youn": 4170,
      "ffle": 4171,
      "breathe": 4172,
      "mcdonal": 4173,
      "tood": 4174,
      "comin": 4175,
      "umped": 4176,
      "katie": 4177,
      "tty": 4178,
      "hawaii": 4179,
      "chest": 4180,
      "friendly": 4181,
      "tweetie": 4182,
      "pity": 4183,
      "probs": 4184,
      "shoulder": 4185,
      "bringing": 4186,
      "changes": 4187,
      "celebrating": 4188,
      "relation": 4189,
      "animal": 4190,
      "pha": 4191,
      "pir": 4192,
      "express": 4193,
      "general": 4194,
      "xico": 4195,
      "cinema": 4196,
      "tn": 4197,
      "ens": 4198,
      "poker": 4199,
      "tues": 4200,
      "bestie": 4201,
      "cleaned": 4202,
      "ffy": 4203,
      "norm": 4204,
      "appreciated": 4205,
      "bleed": 4206,
      "awsome": 4207,
      "installed": 4208,
      "ini": 4209,
      "tax": 4210,
      "sales": 4211,
      "parts": 4212,
      "piano": 4213,
      "charger": 4214,
      "infection": 4215,
      "eric": 4216,
      "india": 4217,
      "closing": 4218,
      "steak": 4219,
      "vids": 4220,
      "tx": 4221,
      "itu": 4222,
      "xxxxxxxx": 4223,
      "creepy": 4224,
      "tweep": 4225,
      "selling": 4226,
      "refer": 4227,
      "lian": 4228,
      "rains": 4229,
      "rules": 4230,
      "picnic": 4231,
      "listened": 4232,
      "skool": 4233,
      "woooo": 4234,
      "brings": 4235,
      "bowling": 4236,
      "spider": 4237,
      "regard": 4238,
      "mia": 4239,
      "killer": 4240,
      "castle": 4241,
      "cruise": 4242,
      "pean": 4243,
      "drawing": 4244,
      "jordan": 4245,
      "grown": 4246,
      "frustrated": 4247,
      "uber": 4248,
      "yey": 4249,
      "mental": 4250,
      "coun": 4251,
      "storms": 4252,
      "niece": 4253,
      "thnx": 4254,
      "wolverine": 4255,
      "whilst": 4256,
      "rt": 4257,
      "impossible": 4258,
      "drank": 4259,
      "create": 4260,
      "cupcakes": 4261,
      "requi": 4262,
      "fried": 4263,
      "liver": 4264,
      "nephew": 4265,
      "meaning": 4266,
      "response": 4267,
      "characters": 4268,
      "himself": 4269,
      "roof": 4270,
      "garage": 4271,
      "ences": 4272,
      "naked": 4273,
      "progress": 4274,
      "mornings": 4275,
      "discovered": 4276,
      "biz": 4277,
      "momma": 4278,
      "trad": 4279,
      "rofl": 4280,
      "insomnia": 4281,
      "bits": 4282,
      "tape": 4283,
      "quiz": 4284,
      "humid": 4285,
      "speech": 4286,
      "mie": 4287,
      "url": 4288,
      "aged": 4289,
      "teh": 4290,
      "japanese": 4291,
      "mexico": 4292,
      "dick": 4293,
      "scott": 4294,
      "cum": 4295,
      "wc": 4296,
      "retweet": 4297,
      "roast": 4298,
      "sadness": 4299,
      "suffering": 4300,
      "pouring": 4301,
      "apt": 4302,
      "haa": 4303,
      "language": 4304,
      "cnt": 4305,
      "cure": 4306,
      "blon": 4307,
      "target": 4308,
      "jimmy": 4309,
      "dreading": 4310,
      "swed": 4311,
      "active": 4312,
      "graduate": 4313,
      "ireland": 4314,
      "mentioned": 4315,
      "repeat": 4316,
      "dust": 4317,
      "js": 4318,
      "mun": 4319,
      "frm": 4320,
      "kicking": 4321,
      "spirit": 4322,
      "incredible": 4323,
      "exercise": 4324,
      "reall": 4325,
      "suppor": 4326,
      "septe": 4327,
      "errand": 4328,
      "bast": 4329,
      "arrive": 4330,
      "miche": 4331,
      "parking": 4332,
      "compli": 4333,
      "opin": 4334,
      "wan": 4335,
      "hungover": 4336,
      "blues": 4337,
      "babysitting": 4338,
      "lyrics": 4339,
      "spr": 4340,
      "pical": 4341,
      "mbers": 4342,
      "chelsea": 4343,
      "including": 4344,
      "september": 4345,
      "seats": 4346,
      "noring": 4347,
      "ref": 4348,
      "muffin": 4349,
      "virgin": 4350,
      "era": 4351,
      "wid": 4352,
      "accor": 4353,
      "virus": 4354,
      "basketball": 4355,
      "becoming": 4356,
      "adi": 4357,
      "wil": 4358,
      "papers": 4359,
      "anger": 4360,
      "canceled": 4361,
      "challenge": 4362,
      "omfg": 4363,
      "simply": 4364,
      "inform": 4365,
      "liz": 4366,
      "motor": 4367,
      "accom": 4368,
      "vine": 4369,
      "brunch": 4370,
      "freed": 4371,
      "audio": 4372,
      "erd": 4373,
      "sorted": 4374,
      "grrrr": 4375,
      "clearly": 4376,
      "obsessed": 4377,
      "kan": 4378,
      "holl": 4379,
      "cricket": 4380,
      "decision": 4381,
      "twin": 4382,
      "fold": 4383,
      "prolly": 4384,
      "rule": 4385,
      "files": 4386,
      "magazine": 4387,
      "thri": 4388,
      "brush": 4389,
      "musical": 4390,
      "pleased": 4391,
      "title": 4392,
      "ros": 4393,
      "farm": 4394,
      "easter": 4395,
      "lang": 4396,
      "topics": 4397,
      "toma": 4398,
      "cig": 4399,
      "rare": 4400,
      "cture": 4401,
      "marketing": 4402,
      "desktop": 4403,
      "breaks": 4404,
      "pred": 4405,
      "bak": 4406,
      "parti": 4407,
      "cereal": 4408,
      "aah": 4409,
      "lolz": 4410,
      "ours": 4411,
      "journey": 4412,
      "houston": 4413,
      "meee": 4414,
      "pppp": 4415,
      "bothered": 4416,
      "emily": 4417,
      "vit": 4418,
      "respect": 4419,
      "damnit": 4420,
      "jacks": 4421,
      "popular": 4422,
      "robert": 4423,
      "aswell": 4424,
      "deb": 4425,
      "pac": 4426,
      "britain": 4427,
      "ination": 4428,
      "morn": 4429,
      "awk": 4430,
      "nas": 4431,
      "tomorow": 4432,
      "polit": 4433,
      "pocket": 4434,
      "tank": 4435,
      "adding": 4436,
      "ague": 4437,
      "kings": 4438,
      "yawn": 4439,
      "ssssssss": 4440,
      "projects": 4441,
      "neighbour": 4442,
      "errands": 4443,
      "tops": 4444,
      "makin": 4445,
      "passing": 4446,
      "rolling": 4447,
      "yikes": 4448,
      "duty": 4449,
      "buzz": 4450,
      "nerd": 4451,
      "disappo": 4452,
      "blind": 4453,
      "giant": 4454,
      "pride": 4455,
      "numbers": 4456,
      "community": 4457,
      "italian": 4458,
      "lk": 4459,
      "inspi": 4460,
      "ora": 4461,
      "funeral": 4462,
      "mexican": 4463,
      "rate": 4464,
      "condition": 4465,
      "manchester": 4466,
      "msg": 4467,
      "winner": 4468,
      "monkey": 4469,
      "shaun": 4470,
      "jacket": 4471,
      "bid": 4472,
      "flip": 4473,
      "tro": 4474,
      "ero": 4475,
      "sittin": 4476,
      "bbc": 4477,
      "bury": 4478,
      "meetings": 4479,
      "austin": 4480,
      "chapter": 4481,
      "neg": 4482,
      "previous": 4483,
      "april": 4484,
      "virtu": 4485,
      "dee": 4486,
      "allen": 4487,
      "similar": 4488,
      "students": 4489,
      "comfortable": 4490,
      "fon": 4491,
      "despite": 4492,
      "gic": 4493,
      "gud": 4494,
      "oooooooooooooooo": 4495,
      "freedom": 4496,
      "gang": 4497,
      "cares": 4498,
      "afri": 4499,
      "typing": 4500,
      "reasons": 4501,
      "sd": 4502,
      "tast": 4503,
      "cutting": 4504,
      "confusing": 4505,
      "jokes": 4506,
      "philly": 4507,
      "common": 4508,
      "physics": 4509,
      "wana": 4510,
      "gran": 4511,
      "vest": 4512,
      "outfit": 4513,
      "subject": 4514,
      "fuse": 4515,
      "cooked": 4516,
      "err": 4517,
      "burgh": 4518,
      "grace": 4519,
      "ummm": 4520,
      "fridge": 4521,
      "cip": 4522,
      "lessons": 4523,
      "november": 4524,
      "np": 4525,
      "forum": 4526,
      "preview": 4527,
      "lightning": 4528,
      "melbourne": 4529,
      "destroy": 4530,
      "tempting": 4531,
      "hollywood": 4532,
      "ignore": 4533,
      "lind": 4534,
      "tors": 4535,
      "awwwww": 4536,
      "register": 4537,
      "kas": 4538,
      "thetic": 4539,
      "hoor": 4540,
      "monster": 4541,
      "opened": 4542,
      "glorious": 4543,
      "zi": 4544,
      "appren": 4545,
      "dais": 4546,
      "farrah": 4547,
      "survive": 4548,
      "pillow": 4549,
      "forgotten": 4550,
      "octo": 4551,
      "competition": 4552,
      "oof": 4553,
      "cloud": 4554,
      "nooooo": 4555,
      "hockey": 4556,
      "ett": 4557,
      "nighty": 4558,
      "woah": 4559,
      "hunting": 4560,
      "easily": 4561,
      "begins": 4562,
      "hil": 4563,
      "pim": 4564,
      "throwing": 4565,
      "according": 4566,
      "grind": 4567,
      "singapo": 4568,
      "heels": 4569,
      "desperate": 4570,
      "disappointing": 4571,
      "bella": 4572,
      "irl": 4573,
      "comic": 4574,
      "dawn": 4575,
      "bling": 4576,
      "bbing": 4577,
      "talented": 4578,
      "bills": 4579,
      "oil": 4580,
      "plays": 4581,
      "surely": 4582,
      "events": 4583,
      "singapore": 4584,
      "equ": 4585,
      "advert": 4586,
      "ets": 4587,
      "seven": 4588,
      "pasta": 4589,
      "junk": 4590,
      "resist": 4591,
      "parano": 4592,
      "careful": 4593,
      "bec": 4594,
      "british": 4595,
      "coughing": 4596,
      "flickr": 4597,
      "accompl": 4598,
      "aar": 4599,
      "placed": 4600,
      "torn": 4601,
      "script": 4602,
      "amazon": 4603,
      "ack": 4604,
      "tam": 4605,
      "herself": 4606,
      "feedback": 4607,
      "apprentice": 4608,
      "quar": 4609,
      "playin": 4610,
      "hmmmm": 4611,
      "uploaded": 4612,
      "normally": 4613,
      "vation": 4614,
      "noise": 4615,
      "pos": 4616,
      "atlanta": 4617,
      "allergic": 4618,
      "limited": 4619,
      "fries": 4620,
      "sunburnt": 4621,
      "shock": 4622,
      "singer": 4623,
      "skills": 4624,
      "yeahh": 4625,
      "borrow": 4626,
      "prince": 4627,
      "engine": 4628,
      "microsoft": 4629,
      "jee": 4630,
      "lover": 4631,
      "iff": 4632,
      "chef": 4633,
      "wonders": 4634,
      "grum": 4635,
      "bleh": 4636,
      "bris": 4637,
      "cutest": 4638,
      "lands": 4639,
      "brian": 4640,
      "ox": 4641,
      "dod": 4642,
      "comfy": 4643,
      "peanut": 4644,
      "dough": 4645,
      "crast": 4646,
      "ortun": 4647,
      "lence": 4648,
      "knight": 4649,
      "edge": 4650,
      "cara": 4651,
      "bass": 4652,
      "usion": 4653,
      "faces": 4654,
      "anele": 4655,
      "central": 4656,
      "iranele": 4657,
      "billy": 4658,
      "gate": 4659,
      "procrast": 4660,
      "pau": 4661,
      "shoe": 4662,
      "photograph": 4663,
      "agh": 4664,
      "staff": 4665,
      "feat": 4666,
      "expecting": 4667,
      "opportun": 4668,
      "ht": 4669,
      "hv": 4670,
      "edit": 4671,
      "whis": 4672,
      "appeared": 4673,
      "degree": 4674,
      "ahah": 4675,
      "wra": 4676,
      "zes": 4677,
      "pear": 4678,
      "charlie": 4679,
      "genius": 4680,
      "softball": 4681,
      "golden": 4682,
      "announce": 4683,
      "sang": 4684,
      "wrist": 4685,
      "resc": 4686,
      "aye": 4687,
      "logi": 4688,
      "alley": 4689,
      "seemed": 4690,
      "grate": 4691,
      "partic": 4692,
      "boots": 4693,
      "moments": 4694,
      "tanning": 4695,
      "gloomy": 4696,
      "inspired": 4697,
      "sry": 4698,
      "thus": 4699,
      "secur": 4700,
      "ently": 4701,
      "consu": 4702,
      "yyyyy": 4703,
      "unt": 4704,
      "wolf": 4705,
      "knock": 4706,
      "dishes": 4707,
      "ors": 4708,
      "subscri": 4709,
      "teaching": 4710,
      "rat": 4711,
      "tend": 4712,
      "edward": 4713,
      "iced": 4714,
      "pointed": 4715,
      "tool": 4716,
      "sia": 4717,
      "pressure": 4718,
      "yee": 4719,
      "docu": 4720,
      "bedroom": 4721,
      "brace": 4722,
      "wordpress": 4723,
      "contacts": 4724,
      "pus": 4725,
      "xious": 4726,
      "thom": 4727,
      "screaming": 4728,
      "selena": 4729,
      "lvatt": 4730,
      "task": 4731,
      "beth": 4732,
      "fridays": 4733,
      "caro": 4734,
      "stack": 4735,
      "phil": 4736,
      "dreaming": 4737,
      "layout": 4738,
      "animals": 4739,
      "scotland": 4740,
      "particular": 4741,
      "nig": 4742,
      "bros": 4743,
      "flies": 4744,
      "universe": 4745,
      "cancel": 4746,
      "crowd": 4747,
      "commercial": 4748,
      "october": 4749,
      "iranelection": 4750,
      "icon": 4751,
      "pregn": 4752,
      "flood": 4753,
      "yahoo": 4754,
      "transl": 4755,
      "dare": 4756,
      "atic": 4757,
      "logo": 4758,
      "baking": 4759,
      "bites": 4760,
      "ential": 4761,
      "ibly": 4762,
      "thir": 4763,
      "forced": 4764,
      "shat": 4765,
      "todays": 4766,
      "satis": 4767,
      "snugg": 4768,
      "frustrating": 4769,
      "nar": 4770,
      "yess": 4771,
      "waitin": 4772,
      "tunes": 4773,
      "successful": 4774,
      "lls": 4775,
      "rocked": 4776,
      "itchy": 4777,
      "bree": 4778,
      "gm": 4779,
      "rec": 4780,
      "mega": 4781,
      "bein": 4782,
      "amanda": 4783,
      "useful": 4784,
      "landed": 4785,
      "bones": 4786,
      "snap": 4787,
      "ize": 4788,
      "pops": 4789,
      "replying": 4790,
      "smith": 4791,
      "eventually": 4792,
      "tastes": 4793,
      "paranoid": 4794,
      "boun": 4795,
      "plug": 4796,
      "sooner": 4797,
      "subway": 4798,
      "spoil": 4799,
      "lim": 4800,
      "wie": 4801,
      "calm": 4802,
      "rey": 4803,
      "domin": 4804,
      "cop": 4805,
      "gona": 4806,
      "rrrrrrrr": 4807,
      "flower": 4808,
      "yumm": 4809,
      "depends": 4810,
      "motivation": 4811,
      "lace": 4812,
      "tasty": 4813,
      "emer": 4814,
      "planet": 4815,
      "cherry": 4816,
      "rehearsal": 4817,
      "technology": 4818,
      "mies": 4819,
      "tongue": 4820,
      "stores": 4821,
      "bitches": 4822,
      "____": 4823,
      "manager": 4824,
      "terribly": 4825,
      "jst": 4826,
      "comedy": 4827,
      "minus": 4828,
      "shops": 4829,
      "trade": 4830,
      "failing": 4831,
      "aaaay": 4832,
      "customer": 4833,
      "theatre": 4834,
      "security": 4835,
      "ppers": 4836,
      "waited": 4837,
      "tells": 4838,
      "smoking": 4839,
      "unfair": 4840,
      "connected": 4841,
      "accidentally": 4842,
      "tone": 4843,
      "zzle": 4844,
      "grandpa": 4845,
      "roller": 4846,
      "blonde": 4847,
      "ani": 4848,
      "phy": 4849,
      "photoshop": 4850,
      "failure": 4851,
      "diego": 4852,
      "pushing": 4853,
      "police": 4854,
      "ib": 4855,
      "rass": 4856,
      "asing": 4857,
      "cob": 4858,
      "partying": 4859,
      "porn": 4860,
      "popcorn": 4861,
      "fred": 4862,
      "anne": 4863,
      "ability": 4864,
      "blogs": 4865,
      "accounts": 4866,
      "hooray": 4867,
      "var": 4868,
      "poorly": 4869,
      "package": 4870,
      "christmas": 4871,
      "mcdonalds": 4872,
      "awkward": 4873,
      "ando": 4874,
      "rio": 4875,
      "luckily": 4876,
      "laughed": 4877,
      "bies": 4878,
      "convo": 4879,
      "nature": 4880,
      "dollars": 4881,
      "involved": 4882,
      "oz": 4883,
      "roman": 4884,
      "offline": 4885,
      "wrk": 4886,
      "panic": 4887,
      "delivery": 4888,
      "zzzzzzzz": 4889,
      "demand": 4890,
      "somethin": 4891,
      "partner": 4892,
      "walmart": 4893,
      "kobe": 4894,
      "beans": 4895,
      "tsk": 4896,
      "tryna": 4897,
      "hic": 4898,
      "wks": 4899,
      "plur": 4900,
      "twitterverse": 4901,
      "shel": 4902,
      "sayin": 4903,
      "smiles": 4904,
      "poop": 4905,
      "windy": 4906,
      "lisa": 4907,
      "dh": 4908,
      "wud": 4909,
      "lift": 4910,
      "mixed": 4911,
      "demons": 4912,
      "vodka": 4913,
      "dread": 4914,
      "oak": 4915,
      "xp": 4916,
      "mester": 4917,
      "beats": 4918,
      "alter": 4919,
      "spare": 4920,
      "cult": 4921,
      "password": 4922,
      "mummy": 4923,
      "crashing": 4924,
      "above": 4925,
      "opinion": 4926,
      "blip": 4927,
      "drew": 4928,
      "eno": 4929,
      "utter": 4930,
      "rachel": 4931,
      "stolen": 4932,
      "wallet": 4933,
      "tgif": 4934,
      "socks": 4935,
      "thern": 4936,
      "divor": 4937,
      "celebrity": 4938,
      "predic": 4939,
      "theart": 4940,
      "haz": 4941,
      "andrew": 4942,
      "poster": 4943,
      "poison": 4944,
      "fixing": 4945,
      "incredibly": 4946,
      "wireless": 4947,
      "ao": 4948,
      "gia": 4949,
      "hack": 4950,
      "guessing": 4951,
      "xox": 4952,
      "lley": 4953,
      "cups": 4954,
      "shiny": 4955,
      "laura": 4956,
      "tall": 4957,
      "theater": 4958,
      "photography": 4959,
      "duck": 4960,
      "warning": 4961,
      "hangin": 4962,
      "ell": 4963,
      "lc": 4964,
      "reunion": 4965,
      "forgive": 4966,
      "twits": 4967,
      "william": 4968,
      "fami": 4969,
      "jazz": 4970,
      "geez": 4971,
      "digital": 4972,
      "assignments": 4973,
      "wy": 4974,
      "bathing": 4975,
      "takin": 4976,
      "mich": 4977,
      "sets": 4978,
      "awa": 4979,
      "dum": 4980,
      "tout": 4981,
      "melt": 4982,
      "chin": 4983,
      "tiring": 4984,
      "saus": 4985,
      "collection": 4986,
      "lest": 4987,
      "mainten": 4988,
      "bai": 4989,
      "plate": 4990,
      "pete": 4991,
      "pieces": 4992,
      "disneyland": 4993,
      "lb": 4994,
      "theory": 4995,
      "metal": 4996,
      "asian": 4997,
      "maid": 4998,
      "thingy": 4999,
      "eeeeeee": 5000,
      "passion": 5001,
      "spoke": 5002,
      "kir": 5003,
      "solo": 5004,
      "coursework": 5005,
      "fishing": 5006,
      "installing": 5007,
      "ket": 5008,
      "sounded": 5009,
      "washed": 5010,
      "entertaining": 5011,
      "tbh": 5012,
      "aso": 5013,
      "diss": 5014,
      "fare": 5015,
      "plast": 5016,
      "toile": 5017,
      "sher": 5018,
      "ample": 5019,
      "gmail": 5020,
      "necess": 5021,
      "joey": 5022,
      "proof": 5023,
      "yayy": 5024,
      "blin": 5025,
      "hunt": 5026,
      "fyi": 5027,
      "zero": 5028,
      "develop": 5029,
      "wth": 5030,
      "spill": 5031,
      "biology": 5032,
      "loun": 5033,
      "youth": 5034,
      "dow": 5035,
      "pathetic": 5036,
      "accent": 5037,
      "blogging": 5038,
      "realise": 5039,
      "hhhhh": 5040,
      "recovering": 5041,
      "ggling": 5042,
      "patch": 5043,
      "remo": 5044,
      "dropping": 5045,
      "champion": 5046,
      "wheel": 5047,
      "jones": 5048,
      "mater": 5049,
      "repair": 5050,
      "stan": 5051,
      "laid": 5052,
      "ohhhh": 5053,
      "crunch": 5054,
      "munch": 5055,
      "pine": 5056,
      "leon": 5057,
      "unfollow": 5058,
      "shy": 5059,
      "hahahahaha": 5060,
      "prepare": 5061,
      "hiding": 5062,
      "noodles": 5063,
      "cis": 5064,
      "tch": 5065,
      "upgrad": 5066,
      "comfort": 5067,
      "trash": 5068,
      "boxes": 5069,
      "venue": 5070,
      "deserved": 5071,
      "hp": 5072,
      "rant": 5073,
      "raw": 5074,
      "dece": 5075,
      "thankful": 5076,
      "gum": 5077,
      "intern": 5078,
      "complic": 5079,
      "ngth": 5080,
      "graduating": 5081,
      "university": 5082,
      "obama": 5083,
      "turkey": 5084,
      "bone": 5085,
      "dissa": 5086,
      "hits": 5087,
      "panda": 5088,
      "thee": 5089,
      "belong": 5090,
      "papa": 5091,
      "yesss": 5092,
      "trick": 5093,
      "param": 5094,
      "stuffed": 5095,
      "nug": 5096,
      "united": 5097,
      "headphones": 5098,
      "hihi": 5099,
      "disco": 5100,
      "insur": 5101,
      "megan": 5102,
      "typical": 5103,
      "tweeter": 5104,
      "brook": 5105,
      "shape": 5106,
      "swing": 5107,
      "hooked": 5108,
      "nba": 5109,
      "thum": 5110,
      "donuts": 5111,
      "saturdays": 5112,
      "reminded": 5113,
      "prepared": 5114,
      "nadal": 5115,
      "emotional": 5116,
      "application": 5117,
      "female": 5118,
      "burg": 5119,
      "ike": 5120,
      "youuu": 5121,
      "arse": 5122,
      "concentr": 5123,
      "sunglasses": 5124,
      "bride": 5125,
      "kyle": 5126,
      "location": 5127,
      "yank": 5128,
      "toni": 5129,
      "useless": 5130,
      "pets": 5131,
      "danger": 5132,
      "uuuuuuuu": 5133,
      "frozen": 5134,
      "introdu": 5135,
      "maintenance": 5136,
      "cul": 5137,
      "playlist": 5138,
      "dull": 5139,
      "medicine": 5140,
      "km": 5141,
      "wink": 5142,
      "ette": 5143,
      "appt": 5144,
      "musicmonday": 5145,
      "license": 5146,
      "gooood": 5147,
      "surprising": 5148,
      "relationship": 5149,
      "semester": 5150,
      "shud": 5151,
      "pitch": 5152,
      "coach": 5153,
      "jury": 5154,
      "thread": 5155,
      "honor": 5156,
      "oppo": 5157,
      "envy": 5158,
      "outs": 5159,
      "pover": 5160,
      "rug": 5161,
      "hyper": 5162,
      "members": 5163,
      "loe": 5164,
      "role": 5165,
      "greek": 5166,
      "chem": 5167,
      "nicely": 5168,
      "serve": 5169,
      "marks": 5170,
      "rooms": 5171,
      "anky": 5172,
      "retard": 5173,
      "fs": 5174,
      "ians": 5175,
      "ooooh": 5176,
      "groo": 5177,
      "afterwards": 5178,
      "marry": 5179,
      "funni": 5180,
      "emma": 5181,
      "warped": 5182,
      "highly": 5183,
      "vm": 5184,
      "towards": 5185,
      "format": 5186,
      "dedic": 5187,
      "information": 5188,
      "attra": 5189,
      "sox": 5190,
      "robot": 5191,
      "xxxxx": 5192,
      "tweetup": 5193,
      "sweetheart": 5194,
      "crit": 5195,
      "publ": 5196,
      "insurance": 5197,
      "argent": 5198,
      "lah": 5199,
      "mari": 5200,
      "skip": 5201,
      "horror": 5202,
      "definately": 5203,
      "victori": 5204,
      "stephen": 5205,
      "contract": 5206,
      "lebron": 5207,
      "igan": 5208,
      "carto": 5209,
      "pleasant": 5210,
      "babes": 5211,
      "snack": 5212,
      "louis": 5213,
      "caffe": 5214,
      "erer": 5215,
      "pepper": 5216,
      "position": 5217,
      "pounds": 5218,
      "ellen": 5219,
      "stro": 5220,
      "ena": 5221,
      "otb": 5222,
      "judge": 5223,
      "computers": 5224,
      "graduated": 5225,
      "prayer": 5226,
      "volun": 5227,
      "split": 5228,
      "embarrass": 5229,
      "lounge": 5230,
      "busted": 5231,
      "removed": 5232,
      "timing": 5233,
      "curry": 5234,
      "solution": 5235,
      "tok": 5236,
      "sts": 5237,
      "wives": 5238,
      "craz": 5239,
      "created": 5240,
      "wknd": 5241,
      "lemme": 5242,
      "paramore": 5243,
      "remix": 5244,
      "lower": 5245,
      "irrit": 5246,
      "scrip": 5247,
      "cutie": 5248,
      "rockin": 5249,
      "budget": 5250,
      "improve": 5251,
      "ized": 5252,
      "jar": 5253,
      "nicole": 5254,
      "willing": 5255,
      "schools": 5256,
      "jake": 5257,
      "concerts": 5258,
      "confid": 5259,
      "intense": 5260,
      "sr": 5261,
      "lips": 5262,
      "spray": 5263,
      "bugger": 5264,
      "tracks": 5265,
      "disgust": 5266,
      "emine": 5267,
      "chain": 5268,
      "jerk": 5269,
      "heroes": 5270,
      "source": 5271,
      "nz": 5272,
      "zac": 5273,
      "gow": 5274,
      "shou": 5275,
      "opera": 5276,
      "ec": 5277,
      "eww": 5278,
      "shave": 5279,
      "toms": 5280,
      "semi": 5281,
      "ohio": 5282,
      "michelle": 5283,
      "compliment": 5284,
      "lio": 5285,
      "upon": 5286,
      "users": 5287,
      "dex": 5288,
      "plants": 5289,
      "whore": 5290,
      "aware": 5291,
      "aaaaaa": 5292,
      "drow": 5293,
      "nj": 5294,
      "vas": 5295,
      "recit": 5296,
      "completed": 5297,
      "instru": 5298,
      "legend": 5299,
      "mosqui": 5300,
      "inn": 5301,
      "halo": 5302,
      "army": 5303,
      "lolol": 5304,
      "waves": 5305,
      "bitter": 5306,
      "resting": 5307,
      "hearts": 5308,
      "transfer": 5309,
      "writer": 5310,
      "ave": 5311,
      "gp": 5312,
      "jas": 5313,
      "tet": 5314,
      "ency": 5315,
      "ghhh": 5316,
      "sian": 5317,
      "indian": 5318,
      "longest": 5319,
      "peoples": 5320,
      "vista": 5321,
      "jackson": 5322,
      "virtual": 5323,
      "nash": 5324,
      "abs": 5325,
      "naw": 5326,
      "icky": 5327,
      "denver": 5328,
      "perfectly": 5329,
      "recipe": 5330,
      "neighbors": 5331,
      "nkotb": 5332,
      "nee": 5333,
      "thumb": 5334,
      "mailed": 5335,
      "nya": 5336,
      "kkk": 5337,
      "fal": 5338,
      "mums": 5339,
      "hiya": 5340,
      "cooler": 5341,
      "yogur": 5342,
      "cupcake": 5343,
      "grill": 5344,
      "rang": 5345,
      "scan": 5346,
      "itis": 5347,
      "holla": 5348,
      "dot": 5349,
      "poke": 5350,
      "hasnt": 5351,
      "browser": 5352,
      "thai": 5353,
      "ured": 5354,
      "incre": 5355,
      "encou": 5356,
      "chea": 5357,
      "craft": 5358,
      "carpet": 5359,
      "clar": 5360,
      "ashes": 5361,
      "knocked": 5362,
      "hated": 5363,
      "lbs": 5364,
      "od": 5365,
      "swa": 5366,
      "edin": 5367,
      "dope": 5368,
      "tub": 5369,
      "clients": 5370,
      "grandparents": 5371,
      "vices": 5372,
      "excite": 5373,
      "weakness": 5374,
      "document": 5375,
      "_o": 5376,
      "owe": 5377,
      "isa": 5378,
      "ghh": 5379,
      "shed": 5380,
      "bueno": 5381,
      "monitor": 5382,
      "duh": 5383,
      "disappeared": 5384,
      "apy": 5385,
      "strawberries": 5386,
      "tumbl": 5387,
      "sob": 5388,
      "combin": 5389,
      "condo": 5390,
      "cials": 5391,
      "clin": 5392,
      "java": 5393,
      "survi": 5394,
      "effort": 5395,
      "reached": 5396,
      "quake": 5397,
      "younger": 5398,
      "fry": 5399,
      "gab": 5400,
      "thou": 5401,
      "ids": 5402,
      "guide": 5403,
      "negative": 5404,
      "eminem": 5405,
      "kia": 5406,
      "thous": 5407,
      "soa": 5408,
      "theyre": 5409,
      "mint": 5410,
      "blows": 5411,
      "chores": 5412,
      "sident": 5413,
      "buddies": 5414,
      "cruel": 5415,
      "volunte": 5416,
      "myster": 5417,
      "yayyy": 5418,
      "shortly": 5419,
      "stinks": 5420,
      "confirm": 5421,
      "toilet": 5422,
      "fig": 5423,
      "vity": 5424,
      "sec": 5425,
      "sooooooo": 5426,
      "filming": 5427,
      "product": 5428,
      "cramps": 5429,
      "thomas": 5430,
      "vr": 5431,
      "inju": 5432,
      "escape": 5433,
      "baked": 5434,
      "happier": 5435,
      "bsb": 5436,
      "root": 5437,
      "drivers": 5438,
      "sssss": 5439,
      "appears": 5440,
      "itude": 5441,
      "hers": 5442,
      "pumped": 5443,
      "linux": 5444,
      "promised": 5445,
      "addiction": 5446,
      "nw": 5447,
      "wats": 5448,
      "ify": 5449,
      "downstairs": 5450,
      "whew": 5451,
      "opportunity": 5452,
      "oven": 5453,
      "vey": 5454,
      "wished": 5455,
      "tless": 5456,
      "craw": 5457,
      "forecast": 5458,
      "career": 5459,
      "personally": 5460,
      "dvds": 5461,
      "filling": 5462,
      "christian": 5463,
      "spelling": 5464,
      "kristen": 5465,
      "sci": 5466,
      "lina": 5467,
      "techni": 5468,
      "username": 5469,
      "thousand": 5470,
      "dess": 5471,
      "ghet": 5472,
      "waa": 5473,
      "entry": 5474,
      "headaches": 5475,
      "scra": 5476,
      "booth": 5477,
      "trees": 5478,
      "communic": 5479,
      "stun": 5480,
      "berlin": 5481,
      "icecream": 5482,
      "vention": 5483,
      "joining": 5484,
      "grateful": 5485,
      "loooo": 5486,
      "chor": 5487,
      "plat": 5488,
      "helpful": 5489,
      "horri": 5490,
      "sucky": 5491,
      "sara": 5492,
      "confirmed": 5493,
      "daniel": 5494,
      "dic": 5495,
      "dye": 5496,
      "jr": 5497,
      "wher": 5498,
      "raz": 5499,
      "gots": 5500,
      "audi": 5501,
      "receive": 5502,
      "claim": 5503,
      "yogurt": 5504,
      "rend": 5505,
      "irish": 5506,
      "themselves": 5507,
      "dublin": 5508,
      "bliss": 5509,
      "reviews": 5510,
      "lun": 5511,
      "ule": 5512,
      "noes": 5513,
      "ckin": 5514,
      "puts": 5515,
      "eatin": 5516,
      "brownies": 5517,
      "colum": 5518,
      "thr": 5519,
      "toooo": 5520,
      "sean": 5521,
      "pow": 5522,
      "homemade": 5523,
      "nevermind": 5524,
      "dale": 5525,
      "kills": 5526,
      "susp": 5527,
      "native": 5528,
      "amen": 5529,
      "shad": 5530,
      "wag": 5531,
      "argu": 5532,
      "ppp": 5533,
      "safar": 5534,
      "stops": 5535,
      "answers": 5536,
      "mario": 5537,
      "pengu": 5538,
      "rocking": 5539,
      "sticks": 5540,
      "exhaust": 5541,
      "buntu": 5542,
      "nightmares": 5543,
      "ease": 5544,
      "rly": 5545,
      "santa": 5546,
      "tad": 5547,
      "lily": 5548,
      "issy": 5549,
      "tap": 5550,
      "brid": 5551,
      "ledge": 5552,
      "teena": 5553,
      "traveling": 5554,
      "plurk": 5555,
      "nxt": 5556,
      "ened": 5557,
      "tific": 5558,
      "whoever": 5559,
      "path": 5560,
      "bars": 5561,
      "norway": 5562,
      "responsi": 5563,
      "babysit": 5564,
      "effing": 5565,
      "lime": 5566,
      "twitterland": 5567,
      "marley": 5568,
      "sync": 5569,
      "squir": 5570,
      "fying": 5571,
      "titan": 5572,
      "journal": 5573,
      "premiere": 5574,
      "tomy": 5575,
      "hash": 5576,
      "homie": 5577,
      "tick": 5578,
      "jose": 5579,
      "buck": 5580,
      "ignoring": 5581,
      "wore": 5582,
      "sony": 5583,
      "puppies": 5584,
      "whoop": 5585,
      "remote": 5586,
      "disgusting": 5587,
      "safari": 5588,
      "cries": 5589,
      "eva": 5590,
      "assist": 5591,
      "negle": 5592,
      "hahaa": 5593,
      "essions": 5594,
      "dub": 5595,
      "skate": 5596,
      "junior": 5597,
      "dvr": 5598,
      "robin": 5599,
      "vampire": 5600,
      "dating": 5601,
      "gary": 5602,
      "une": 5603,
      "verage": 5604,
      "provid": 5605,
      "buff": 5606,
      "profession": 5607,
      "further": 5608,
      "murder": 5609,
      "pregnant": 5610,
      "returned": 5611,
      "bom": 5612,
      "fawc": 5613,
      "twitt": 5614,
      "apply": 5615,
      "jelly": 5616,
      "audition": 5617,
      "geography": 5618,
      "thunderstorm": 5619,
      "ttyl": 5620,
      "oop": 5621,
      "dealing": 5622,
      "pulling": 5623,
      "colors": 5624,
      "counter": 5625,
      "complicated": 5626,
      "caffeine": 5627,
      "veget": 5628,
      "worn": 5629,
      "jacob": 5630,
      "johnny": 5631,
      "tweeple": 5632,
      "grumpy": 5633,
      "fits": 5634,
      "jj": 5635,
      "sms": 5636,
      "anxious": 5637,
      "daw": 5638,
      "images": 5639,
      "ships": 5640,
      "jessica": 5641,
      "complaining": 5642,
      "gooooo": 5643,
      "sab": 5644,
      "enix": 5645,
      "unable": 5646,
      "ille": 5647,
      "sav": 5648,
      "friggin": 5649,
      "mira": 5650,
      "mines": 5651,
      "craig": 5652,
      "roomm": 5653,
      "sleepover": 5654,
      "nuggets": 5655,
      "mph": 5656,
      "sno": 5657,
      "ona": 5658,
      "shif": 5659,
      "struggling": 5660,
      "society": 5661,
      "argentina": 5662,
      "excitement": 5663,
      "ditch": 5664,
      "srs": 5665,
      "shor": 5666,
      "loading": 5667,
      "votes": 5668,
      "jamie": 5669,
      "depend": 5670,
      "thumbs": 5671,
      "sink": 5672,
      "beast": 5673,
      "author": 5674,
      "films": 5675,
      "logies": 5676,
      "skinny": 5677,
      "multiple": 5678,
      "families": 5679,
      "ui": 5680,
      "ander": 5681,
      "coolest": 5682,
      "flew": 5683,
      "asot": 5684,
      "jane": 5685,
      "ubuntu": 5686,
      "meeee": 5687,
      "bake": 5688,
      "ffs": 5689,
      "rainbow": 5690,
      "berg": 5691,
      "closet": 5692,
      "flights": 5693,
      "umbre": 5694,
      "psycho": 5695,
      "hint": 5696,
      "valley": 5697,
      "dding": 5698,
      "ako": 5699,
      "emergen": 5700,
      "dred": 5701,
      "wend": 5702,
      "forgetting": 5703,
      "precious": 5704,
      "marri": 5705,
      "tribut": 5706,
      "foods": 5707,
      "squee": 5708,
      "answered": 5709,
      "federer": 5710,
      "relig": 5711,
      "hugh": 5712,
      "ilove": 5713,
      "punk": 5714,
      "whit": 5715,
      "kel": 5716,
      "ggle": 5717,
      "cracked": 5718,
      "staring": 5719,
      "circle": 5720,
      "distur": 5721,
      "factory": 5722,
      "zombie": 5723,
      "bleeding": 5724,
      "fet": 5725,
      "pump": 5726,
      "uhh": 5727,
      "sober": 5728,
      "withdra": 5729,
      "laker": 5730,
      "exchange": 5731,
      "twitterberry": 5732,
      "shoulda": 5733,
      "talks": 5734,
      "prices": 5735,
      "dollar": 5736,
      "africa": 5737,
      "recital": 5738,
      "todd": 5739,
      "items": 5740,
      "everyones": 5741,
      "rolls": 5742,
      "scheduled": 5743,
      "bil": 5744,
      "wot": 5745,
      "hacked": 5746,
      "became": 5747,
      "held": 5748,
      "moder": 5749,
      "pretend": 5750,
      "autom": 5751,
      "adore": 5752,
      "glasgow": 5753,
      "fawcett": 5754,
      "dup": 5755,
      "gc": 5756,
      "tomor": 5757,
      "backup": 5758,
      "messing": 5759,
      "sonic": 5760,
      "touched": 5761,
      "deter": 5762,
      "hosting": 5763,
      "rescue": 5764,
      "owner": 5765,
      "phoenix": 5766,
      "reception": 5767,
      "richard": 5768,
      "bbit": 5769,
      "fone": 5770,
      "oned": 5771,
      "iture": 5772,
      "aming": 5773,
      "laws": 5774,
      "joys": 5775,
      "cling": 5776,
      "listenin": 5777,
      "dragon": 5778,
      "opti": 5779,
      "britt": 5780,
      "aaron": 5781,
      "bash": 5782,
      "ea": 5783,
      "tai": 5784,
      "sorta": 5785,
      "international": 5786,
      "stressful": 5787,
      "katy": 5788,
      "ame": 5789,
      "furn": 5790,
      "ira": 5791,
      "pills": 5792,
      "rod": 5793,
      "therapy": 5794,
      "ulti": 5795,
      "cud": 5796,
      "kore": 5797,
      "educ": 5798,
      "route": 5799,
      "gni": 5800,
      "kh": 5801,
      "holic": 5802,
      "thering": 5803,
      "els": 5804,
      "stays": 5805,
      "achie": 5806,
      "salt": 5807,
      "legal": 5808,
      "karma": 5809,
      "spymaster": 5810,
      "victoria": 5811,
      "nine": 5812,
      "pd": 5813,
      "attempting": 5814,
      "leigh": 5815,
      "guard": 5816,
      "mango": 5817,
      "couver": 5818,
      "centre": 5819,
      "ginger": 5820,
      "folk": 5821,
      "sheets": 5822,
      "calend": 5823,
      "titanic": 5824,
      "org": 5825,
      "chrome": 5826,
      "lik": 5827,
      "tiff": 5828,
      "kki": 5829,
      "beef": 5830,
      "drugs": 5831,
      "biscu": 5832,
      "mut": 5833,
      "prison": 5834,
      "cleve": 5835,
      "pains": 5836,
      "surfing": 5837,
      "vines": 5838,
      "signal": 5839,
      "snl": 5840,
      "vancouver": 5841,
      "gurl": 5842,
      "thunderstorms": 5843,
      "sq": 5844,
      "inno": 5845,
      "coco": 5846,
      "aging": 5847,
      "gray": 5848,
      "ggies": 5849,
      "shocked": 5850,
      "tuned": 5851,
      "electri": 5852,
      "rin": 5853,
      "leve": 5854,
      "eeds": 5855,
      "grant": 5856,
      "manila": 5857,
      "dip": 5858,
      "clever": 5859,
      "diff": 5860,
      "dresses": 5861,
      "patter": 5862,
      "options": 5863,
      "recorded": 5864,
      "mg": 5865,
      "wrap": 5866,
      "league": 5867,
      "lova": 5868,
      "aret": 5869,
      "mack": 5870,
      "somewhat": 5871,
      "skir": 5872,
      "boarding": 5873,
      "aussie": 5874,
      "dl": 5875,
      "vom": 5876,
      "reject": 5877,
      "remain": 5878,
      "expl": 5879,
      "reaction": 5880,
      "menu": 5881,
      "lovee": 5882,
      "potato": 5883,
      "api": 5884,
      "omy": 5885,
      "ories": 5886,
      "sequ": 5887,
      "separ": 5888,
      "thankfully": 5889,
      "fili": 5890,
      "surf": 5891,
      "burgers": 5892,
      "tempted": 5893,
      "advant": 5894,
      "ua": 5895,
      "dizzy": 5896,
      "sickness": 5897,
      "hardcore": 5898,
      "randomly": 5899,
      "devil": 5900,
      "mn": 5901,
      "xy": 5902,
      "hem": 5903,
      "unhappy": 5904,
      "quali": 5905,
      "expo": 5906,
      "indy": 5907,
      "follows": 5908,
      "blew": 5909,
      "drun": 5910,
      "curse": 5911,
      "braces": 5912,
      "purchase": 5913,
      "flags": 5914,
      "shipping": 5915,
      "pff": 5916,
      "invest": 5917,
      "rafa": 5918,
      "donnie": 5919,
      "spark": 5920,
      "rested": 5921,
      "moves": 5922,
      "commit": 5923,
      "leader": 5924,
      "shattered": 5925,
      "ikea": 5926,
      "izing": 5927,
      "sway": 5928,
      "thre": 5929,
      "usb": 5930,
      "php": 5931,
      "mond": 5932,
      "submit": 5933,
      "survived": 5934,
      "mirror": 5935,
      "december": 5936,
      "cleveland": 5937,
      "alan": 5938,
      "built": 5939,
      "blush": 5940,
      "ballo": 5941,
      "matthe": 5942,
      "charlot": 5943,
      "heaps": 5944,
      "stalker": 5945,
      "sweden": 5946,
      "ewww": 5947,
      "lal": 5948,
      "o_o": 5949,
      "ull": 5950,
      "roit": 5951,
      "backyard": 5952,
      "sleeps": 5953,
      "paste": 5954,
      "dudes": 5955,
      "cheesecake": 5956,
      "plastic": 5957,
      "emergency": 5958,
      "mers": 5959,
      "noooooo": 5960,
      "holes": 5961,
      "rove": 5962,
      "twins": 5963,
      "shire": 5964,
      "naught": 5965,
      "blur": 5966,
      "campus": 5967,
      "pattin": 5968,
      "jumping": 5969,
      "bamboo": 5970,
      "soaked": 5971,
      "pile": 5972,
      "higher": 5973,
      "safely": 5974,
      "distance": 5975,
      "polish": 5976,
      "md": 5977,
      "liqu": 5978,
      "nause": 5979,
      "march": 5980,
      "stew": 5981,
      "steps": 5982,
      "kinds": 5983,
      "simon": 5984,
      "mitchel": 5985,
      "coverage": 5986,
      "sofa": 5987,
      "spong": 5988,
      "overnight": 5989,
      "rubs": 5990,
      "jud": 5991,
      "reports": 5992,
      "compan": 5993,
      "graphic": 5994,
      "detroit": 5995,
      "pattinson": 5996,
      "oring": 5997,
      "nokia": 5998,
      "asia": 5999,
      "scen": 6000,
      "girly": 6001,
      "sneezing": 6002,
      "habit": 6003,
      "beers": 6004,
      "pep": 6005,
      "joking": 6006,
      "leavin": 6007,
      "sweets": 6008,
      "mmmmmmmm": 6009,
      "patrick": 6010,
      "statement": 6011,
      "include": 6012,
      "boredom": 6013,
      "indoors": 6014,
      "abc": 6015,
      "quotes": 6016,
      "bestfriend": 6017,
      "shakes": 6018,
      "hundred": 6019,
      "believ": 6020,
      "asks": 6021,
      "dougie": 6022,
      "knw": 6023,
      "effin": 6024,
      "vanilla": 6025,
      "beyonce": 6026,
      "rhy": 6027,
      "inbox": 6028,
      "eek": 6029,
      "asure": 6030,
      "worker": 6031,
      "delight": 6032,
      "stopping": 6033,
      "mony": 6034,
      "dislike": 6035,
      "discount": 6036,
      "itches": 6037,
      "favorites": 6038,
      "tourna": 6039,
      "addictive": 6040,
      "relative": 6041,
      "convince": 6042,
      "oy": 6043,
      "pg": 6044,
      "adult": 6045,
      "studies": 6046,
      "perry": 6047,
      "parad": 6048,
      "choc": 6049,
      "bian": 6050,
      "reminder": 6051,
      "srsly": 6052,
      "furniture": 6053,
      "fas": 6054,
      "yaaay": 6055,
      "gods": 6056,
      "drum": 6057,
      "purpose": 6058,
      "cooper": 6059,
      "management": 6060,
      "neighbours": 6061,
      "nashville": 6062,
      "umbrella": 6063,
      "korean": 6064,
      "tent": 6065,
      "solid": 6066,
      "cope": 6067,
      "mug": 6068,
      "bible": 6069,
      "apologi": 6070,
      "severe": 6071,
      "suspended": 6072,
      "lum": 6073,
      "replaced": 6074,
      "reader": 6075,
      "creating": 6076,
      "booooo": 6077,
      "gad": 6078,
      "oi": 6079,
      "etsy": 6080,
      "volley": 6081,
      "products": 6082,
      "presents": 6083,
      "loop": 6084,
      "recommendation": 6085,
      "francis": 6086,
      "procrastin": 6087,
      "remove": 6088,
      "arian": 6089,
      "map": 6090,
      "twitterville": 6091,
      "pak": 6092,
      "mono": 6093,
      "hardest": 6094,
      "humor": 6095,
      "disc": 6096,
      "answering": 6097,
      "celebration": 6098,
      "jerry": 6099,
      "havnt": 6100,
      "suffer": 6101,
      "customers": 6102,
      "distracted": 6103,
      "forms": 6104,
      "coat": 6105,
      "workers": 6106,
      "grew": 6107,
      "lux": 6108,
      "descri": 6109,
      "countdown": 6110,
      "chilly": 6111,
      "heather": 6112,
      "wifey": 6113,
      "entertainment": 6114,
      "settings": 6115,
      "reckon": 6116,
      "fif": 6117,
      "depart": 6118,
      "nack": 6119,
      "sadden": 6120,
      "hire": 6121,
      "fails": 6122,
      "aaaah": 6123,
      "teachers": 6124,
      "eag": 6125,
      "gimme": 6126,
      "toys": 6127,
      "domain": 6128,
      "neat": 6129,
      "minds": 6130,
      "supernatural": 6131,
      "bikin": 6132,
      "turtle": 6133,
      "woods": 6134,
      "recovery": 6135,
      "chile": 6136,
      "alpha": 6137,
      "urban": 6138,
      "sake": 6139,
      "heyyy": 6140,
      "realy": 6141,
      "syn": 6142,
      "prior": 6143,
      "yucky": 6144,
      "routine": 6145,
      "lp": 6146,
      "itz": 6147,
      "edition": 6148,
      "soda": 6149,
      "amin": 6150,
      "maker": 6151,
      "besties": 6152,
      "soundtrack": 6153,
      "hott": 6154,
      "jaja": 6155,
      "loaded": 6156,
      "volution": 6157,
      "ivity": 6158,
      "performing": 6159,
      "accomplished": 6160,
      "shoutout": 6161,
      "tumblr": 6162,
      "bility": 6163,
      "cds": 6164,
      "toss": 6165,
      "aband": 6166,
      "tacos": 6167,
      "sies": 6168,
      "combo": 6169,
      "alice": 6170,
      "features": 6171,
      "concentrate": 6172,
      "retarded": 6173,
      "ues": 6174,
      "mud": 6175,
      "phi": 6176,
      "headin": 6177,
      "naughty": 6178,
      "mite": 6179,
      "init": 6180,
      "iter": 6181,
      "formed": 6182,
      "nest": 6183,
      "archule": 6184,
      "fairy": 6185,
      "martin": 6186,
      "appropri": 6187,
      "sponge": 6188,
      "gil": 6189,
      "hooo": 6190,
      "jere": 6191,
      "ole": 6192,
      "sg": 6193,
      "finan": 6194,
      "silence": 6195,
      "conver": 6196,
      "ruby": 6197,
      "girlie": 6198,
      "texted": 6199,
      "kicks": 6200,
      "praise": 6201,
      "costs": 6202,
      "sausage": 6203,
      "archuleta": 6204,
      "eight": 6205,
      "tink": 6206,
      "vip": 6207,
      "amster": 6208,
      "tidy": 6209,
      "dones": 6210,
      "sorting": 6211,
      "sket": 6212,
      "charity": 6213,
      "range": 6214,
      "imp": 6215,
      "shouldnt": 6216,
      "cuts": 6217,
      "para": 6218,
      "mighty": 6219,
      "messy": 6220,
      "fallen": 6221,
      "dessert": 6222,
      "miracle": 6223,
      "kl": 6224,
      "rated": 6225,
      "lef": 6226,
      "nicer": 6227,
      "abit": 6228,
      "caps": 6229,
      "bled": 6230,
      "margar": 6231,
      "display": 6232,
      "matters": 6233,
      "salon": 6234,
      "motivated": 6235,
      "tomato": 6236,
      "ultimate": 6237,
      "charlotte": 6238,
      "cers": 6239,
      "emailed": 6240,
      "lance": 6241,
      "ata": 6242,
      "etime": 6243,
      "bache": 6244,
      "bucket": 6245,
      "overall": 6246,
      "anks": 6247,
      "laughs": 6248,
      "royal": 6249,
      "lovato": 6250,
      "gw": 6251,
      "lob": 6252,
      "cep": 6253,
      "goodnite": 6254,
      "wack": 6255,
      "whose": 6256,
      "famili": 6257,
      "celebs": 6258,
      "purse": 6259,
      "fantasy": 6260,
      "washington": 6261,
      "refreshing": 6262,
      "dangerous": 6263,
      "tournament": 6264,
      "dork": 6265,
      "lous": 6266,
      "nate": 6267,
      "arg": 6268,
      "unexpected": 6269,
      "canad": 6270,
      "shoulders": 6271,
      "lists": 6272,
      "trips": 6273,
      "bloo": 6274,
      "passes": 6275,
      "falls": 6276,
      "eeep": 6277,
      "legit": 6278,
      "memorial": 6279,
      "basement": 6280,
      "broadcast": 6281,
      "glu": 6282,
      "kon": 6283,
      "urge": 6284,
      "poet": 6285,
      "awesomeness": 6286,
      "fected": 6287,
      "anatomy": 6288,
      "portu": 6289,
      "blessings": 6290,
      "eyed": 6291,
      "eurovision": 6292,
      "necessary": 6293,
      "hence": 6294,
      "among": 6295,
      "mms": 6296,
      "ffles": 6297,
      "childhood": 6298,
      "sunburned": 6299,
      "delivered": 6300,
      "divorce": 6301,
      "surprisingly": 6302,
      "amsterdam": 6303,
      "cad": 6304,
      "fus": 6305,
      "lur": 6306,
      "upside": 6307,
      "mod": 6308,
      "workshop": 6309,
      "nighter": 6310,
      "decor": 6311,
      "constru": 6312,
      "players": 6313,
      "acou": 6314,
      "brb": 6315,
      "visited": 6316,
      "gigs": 6317,
      "ronic": 6318,
      "recogni": 6319,
      "michigan": 6320,
      "dim": 6321,
      "lj": 6322,
      "tools": 6323,
      "letters": 6324,
      "painted": 6325,
      "electric": 6326,
      "advance": 6327,
      "immedi": 6328,
      "opposite": 6329,
      "dre": 6330,
      "zle": 6331,
      "recess": 6332,
      "aries": 6333,
      "bac": 6334,
      "slum": 6335,
      "torture": 6336,
      "photoshoot": 6337,
      "suspe": 6338,
      "temper": 6339,
      "strike": 6340,
      "tempor": 6341,
      "ashamed": 6342,
      "goooo": 6343,
      "stood": 6344,
      "orders": 6345,
      "tiger": 6346,
      "reamed": 6347,
      "ggers": 6348,
      "firm": 6349,
      "bullshit": 6350,
      "physical": 6351,
      "houses": 6352,
      "marriage": 6353,
      "kath": 6354,
      "handsome": 6355,
      "beatles": 6356,
      "ahhhhhh": 6357,
      "brew": 6358,
      "dent": 6359,
      "eel": 6360,
      "noone": 6361,
      "grounded": 6362,
      "knees": 6363,
      "whale": 6364,
      "blanket": 6365,
      "wheres": 6366,
      "indones": 6367,
      "oured": 6368,
      "hols": 6369,
      "rocket": 6370,
      "upcoming": 6371,
      "bbie": 6372,
      "swag": 6373,
      "deadline": 6374,
      "relaxed": 6375,
      "jumped": 6376,
      "latte": 6377,
      "cheaper": 6378,
      "erm": 6379,
      "inge": 6380,
      "nels": 6381,
      "mann": 6382,
      "prime": 6383,
      "drops": 6384,
      "interviews": 6385,
      "decisions": 6386,
      "liverpool": 6387,
      "jeez": 6388,
      "dissapointed": 6389,
      "mim": 6390,
      "amber": 6391,
      "lag": 6392,
      "feeding": 6393,
      "luke": 6394,
      "jewel": 6395,
      "bonus": 6396,
      "occas": 6397,
      "ironing": 6398,
      "clipse": 6399,
      "gaming": 6400,
      "hilton": 6401,
      "development": 6402,
      "ahahaha": 6403,
      "cate": 6404,
      "lg": 6405,
      "uff": 6406,
      "meg": 6407,
      "hammer": 6408,
      "diam": 6409,
      "broo": 6410,
      "services": 6411,
      "oool": 6412,
      "housework": 6413,
      "horny": 6414,
      "crossing": 6415,
      "karao": 6416,
      "necklace": 6417,
      "earthquake": 6418,
      "global": 6419,
      "karaoke": 6420,
      "thick": 6421,
      "lecture": 6422,
      "gov": 6423,
      "eter": 6424,
      "racing": 6425,
      "dean": 6426,
      "bump": 6427,
      "surround": 6428,
      "patience": 6429,
      "iremember": 6430,
      "hoe": 6431,
      "aland": 6432,
      "unbeliev": 6433,
      "coin": 6434,
      "terms": 6435,
      "pai": 6436,
      "albums": 6437,
      "nurse": 6438,
      "adium": 6439,
      "advantage": 6440,
      "volleyball": 6441,
      "mw": 6442,
      "wreck": 6443,
      "atly": 6444,
      "bears": 6445,
      "ading": 6446,
      "lion": 6447,
      "roger": 6448,
      "dell": 6449,
      "cony": 6450,
      "nyt": 6451,
      "ughhhh": 6452,
      "potential": 6453,
      "spoiled": 6454,
      "templ": 6455,
      "llllllll": 6456,
      "frame": 6457,
      "accepted": 6458,
      "acoustic": 6459,
      "zu": 6460,
      "anth": 6461,
      "ria": 6462,
      "minor": 6463,
      "forest": 6464,
      "horses": 6465,
      "views": 6466,
      "halfway": 6467,
      "douche": 6468,
      "rrrrr": 6469,
      "worrying": 6470,
      "attacked": 6471,
      "brandon": 6472,
      "impressive": 6473,
      "inspiring": 6474,
      "bradie": 6475,
      "funniest": 6476,
      "familiar": 6477,
      "itation": 6478,
      "aside": 6479,
      "ripped": 6480,
      "rabbit": 6481,
      "factor": 6482,
      "spen": 6483,
      "spac": 6484,
      "derby": 6485,
      "disappear": 6486,
      "crashes": 6487,
      "bastard": 6488,
      "aut": 6489,
      "eclipse": 6490,
      "tamp": 6491,
      "beating": 6492,
      "lore": 6493,
      "loll": 6494,
      "rumor": 6495,
      "bestest": 6496,
      "hulu": 6497,
      "tragic": 6498,
      "blown": 6499,
      "korea": 6500,
      "strength": 6501,
      "guna": 6502,
      "wkend": 6503,
      "jesse": 6504,
      "georgia": 6505,
      "dutch": 6506,
      "experien": 6507,
      "bracelet": 6508,
      "appropriate": 6509,
      "pand": 6510,
      "rb": 6511,
      "refle": 6512,
      "stats": 6513,
      "ayay": 6514,
      "novel": 6515,
      "slam": 6516,
      "maria": 6517,
      "discover": 6518,
      "syty": 6519,
      "greetings": 6520,
      "nigga": 6521,
      "inte": 6522,
      "gos": 6523,
      "sept": 6524,
      "naps": 6525,
      "actor": 6526,
      "vast": 6527,
      "compared": 6528,
      "peaceful": 6529,
      "balcony": 6530,
      "effects": 6531,
      "continues": 6532,
      "ninten": 6533,
      "ome": 6534,
      "rl": 6535,
      "wif": 6536,
      "mani": 6537,
      "signs": 6538,
      "rolled": 6539,
      "value": 6540,
      "purchas": 6541,
      "dur": 6542,
      "gna": 6543,
      "pere": 6544,
      "stab": 6545,
      "wimble": 6546,
      "rides": 6547,
      "funn": 6548,
      "lasted": 6549,
      "damage": 6550,
      "cycling": 6551,
      "prize": 6552,
      "discuss": 6553,
      "becca": 6554,
      "levels": 6555,
      "kni": 6556,
      "outing": 6557,
      "spon": 6558,
      "asshole": 6559,
      "batter": 6560,
      "articles": 6561,
      "autograph": 6562,
      "announced": 6563,
      "tetris": 6564,
      "professional": 6565,
      "goooood": 6566,
      "sytycd": 6567,
      "cart": 6568,
      "gus": 6569,
      "twas": 6570,
      "hectic": 6571,
      "unit": 6572,
      "covers": 6573,
      "exten": 6574,
      "offs": 6575,
      "therefore": 6576,
      "cheering": 6577,
      "sinus": 6578,
      "yipp": 6579,
      "canadian": 6580,
      "wimbledon": 6581,
      "cba": 6582,
      "mand": 6583,
      "doh": 6584,
      "portland": 6585,
      "tommorrow": 6586,
      "vibes": 6587,
      "lens": 6588,
      "deserves": 6589,
      "suggestion": 6590,
      "swell": 6591,
      "wut": 6592,
      "hoped": 6593,
      "tied": 6594,
      "ples": 6595,
      "propo": 6596,
      "indust": 6597,
      "yaay": 6598,
      "amazingly": 6599,
      "solved": 6600,
      "sighs": 6601,
      "malay": 6602,
      "crime": 6603,
      "pussy": 6604,
      "bg": 6605,
      "galler": 6606,
      "string": 6607,
      "sem": 6608,
      "taught": 6609,
      "saf": 6610,
      "mars": 6611,
      "smash": 6612,
      "balance": 6613,
      "neighborhood": 6614,
      "rugby": 6615,
      "csi": 6616,
      "tyler": 6617,
      "servers": 6618,
      "county": 6619,
      "worthy": 6620,
      "crib": 6621,
      "bees": 6622,
      "strict": 6623,
      "tornado": 6624,
      "aj": 6625,
      "cen": 6626,
      "git": 6627,
      "knack": 6628,
      "nov": 6629,
      "nomin": 6630,
      "allll": 6631,
      "whi": 6632,
      "weir": 6633,
      "goodluck": 6634,
      "usive": 6635,
      "agne": 6636,
      "greg": 6637,
      "scrubs": 6638,
      "housewives": 6639,
      "disaster": 6640,
      "gardening": 6641,
      "bonfire": 6642,
      "replacement": 6643,
      "piercing": 6644,
      "constantly": 6645,
      "nit": 6646,
      "uck": 6647,
      "whel": 6648,
      "ining": 6649,
      "tomoz": 6650,
      "reference": 6651,
      "orient": 6652,
      "strip": 6653,
      "medi": 6654,
      "ays": 6655,
      "beloved": 6656,
      "doggy": 6657,
      "colo": 6658,
      "daught": 6659,
      "pork": 6660,
      "naman": 6661,
      "nintendo": 6662,
      "tify": 6663,
      "nathan": 6664,
      "sunset": 6665,
      "bush": 6666,
      "drinkin": 6667,
      "celeb": 6668,
      "soap": 6669,
      "rawr": 6670,
      "ender": 6671,
      "president": 6672,
      "coldplay": 6673,
      "instant": 6674,
      "websites": 6675,
      "walls": 6676,
      "pissing": 6677,
      "dolls": 6678,
      "montreal": 6679,
      "lambert": 6680,
      "injured": 6681,
      "roommate": 6682,
      "vp": 6683,
      "invent": 6684,
      "tol": 6685,
      "renew": 6686,
      "refuse": 6687,
      "verizon": 6688,
      "cod": 6689,
      "raise": 6690,
      "sue": 6691,
      "weekly": 6692,
      "spar": 6693,
      "listed": 6694,
      "amazed": 6695,
      "blowing": 6696,
      "crystal": 6697,
      "seasons": 6698,
      "evry": 6699,
      "wwwwwwww": 6700,
      "streets": 6701,
      "vend": 6702,
      "maine": 6703,
      "shane": 6704,
      "bold": 6705,
      "supp": 6706,
      "dram": 6707,
      "chose": 6708,
      "aug": 6709,
      "fitness": 6710,
      "haters": 6711,
      "australian": 6712,
      "economy": 6713,
      "supporting": 6714,
      "britains": 6715,
      "mandy": 6716,
      "inch": 6717,
      "ordin": 6718,
      "iser": 6719,
      "vegan": 6720,
      "wierd": 6721,
      "dose": 6722,
      "coding": 6723,
      "silent": 6724,
      "dane": 6725,
      "hhhhhh": 6726,
      "stressing": 6727,
      "attending": 6728,
      "kittens": 6729,
      "sprint": 6730,
      "quarter": 6731,
      "lush": 6732,
      "pb": 6733,
      "relie": 6734,
      "unemploy": 6735,
      "cane": 6736,
      "peach": 6737,
      "weed": 6738,
      "whos": 6739,
      "supper": 6740,
      "shaking": 6741,
      "eeeeeeeeeeeeeeee": 6742,
      "jenny": 6743,
      "beard": 6744,
      "weee": 6745,
      "graphics": 6746,
      "uhm": 6747,
      "adopt": 6748,
      "stalk": 6749,
      "breeze": 6750,
      "ffa": 6751,
      "orn": 6752,
      "essa": 6753,
      "dayy": 6754,
      "rian": 6755,
      "twat": 6756,
      "wasting": 6757,
      "foc": 6758,
      "consist": 6759,
      "tutori": 6760,
      "applied": 6761,
      "printer": 6762,
      "killers": 6763,
      "handy": 6764,
      "southern": 6765,
      "trains": 6766,
      "rays": 6767,
      "allergy": 6768,
      "passport": 6769,
      "yl": 6770,
      "veni": 6771,
      "wiz": 6772,
      "untill": 6773,
      "bobby": 6774,
      "perth": 6775,
      "cranky": 6776,
      "warming": 6777,
      "fairly": 6778,
      "webcam": 6779,
      "banned": 6780,
      "romantic": 6781,
      "stunning": 6782,
      "psp": 6783,
      "ub": 6784,
      "wes": 6785,
      "popped": 6786,
      "example": 6787,
      "spicy": 6788,
      "finds": 6789,
      "skies": 6790,
      "desperately": 6791,
      "adventures": 6792,
      "smoothie": 6793,
      "footy": 6794,
      "muscles": 6795,
      "calendar": 6796,
      "jd": 6797,
      "mour": 6798,
      "atlan": 6799,
      "sole": 6800,
      "belt": 6801,
      "mock": 6802,
      "donut": 6803,
      "polar": 6804,
      "taxi": 6805,
      "fron": 6806,
      "crushed": 6807,
      "lobster": 6808,
      "occasion": 6809,
      "heee": 6810,
      "rm": 6811,
      "lex": 6812,
      "forums": 6813,
      "veron": 6814,
      "fired": 6815,
      "mmmmmm": 6816,
      "chances": 6817,
      "stalking": 6818,
      "spinning": 6819,
      "edinburgh": 6820,
      "combination": 6821,
      "skirt": 6822,
      "apologize": 6823,
      "bnp": 6824,
      "ques": 6825,
      "sack": 6826,
      "saddest": 6827,
      "sunbathing": 6828,
      "scoo": 6829,
      "damned": 6830,
      "telly": 6831,
      "burri": 6832,
      "brows": 6833,
      "busters": 6834,
      "internship": 6835,
      "publish": 6836,
      "average": 6837,
      "sessions": 6838,
      "tg": 6839,
      "yas": 6840,
      "lions": 6841,
      "backs": 6842,
      "owl": 6843,
      "expi": 6844,
      "shell": 6845,
      "leading": 6846,
      "tml": 6847,
      "designer": 6848,
      "dah": 6849,
      "itouch": 6850,
      "rc": 6851,
      "thesis": 6852,
      "waffle": 6853,
      "knowledge": 6854,
      "twitterers": 6855,
      "props": 6856,
      "dial": 6857,
      "triple": 6858,
      "mush": 6859,
      "skill": 6860,
      "belgi": 6861,
      "culture": 6862,
      "paradise": 6863,
      "relief": 6864,
      "aire": 6865,
      "tooooo": 6866,
      "myweakness": 6867,
      "rode": 6868,
      "iry": 6869,
      "owww": 6870,
      "closest": 6871,
      "chicks": 6872,
      "slide": 6873,
      "athan": 6874,
      "hut": 6875,
      "kool": 6876,
      "keen": 6877,
      "icure": 6878,
      "tac": 6879,
      "needing": 6880,
      "minim": 6881,
      "served": 6882,
      "chili": 6883,
      "garlic": 6884,
      "notebook": 6885,
      "groups": 6886,
      "jackie": 6887,
      "rarely": 6888,
      "kee": 6889,
      "yn": 6890,
      "ades": 6891,
      "alll": 6892,
      "roid": 6893,
      "device": 6894,
      "erson": 6895,
      "concept": 6896,
      "stern": 6897,
      "flix": 6898,
      "records": 6899,
      "included": 6900,
      "gentle": 6901,
      "assume": 6902,
      "particip": 6903,
      "spilled": 6904,
      "brooklyn": 6905,
      "jill": 6906,
      "docs": 6907,
      "breathing": 6908,
      "concerned": 6909,
      "streaming": 6910,
      "commercials": 6911,
      "championship": 6912,
      "withdrawal": 6913,
      "ego": 6914,
      "glow": 6915,
      "mous": 6916,
      "vu": 6917,
      "insu": 6918,
      "thon": 6919,
      "arily": 6920,
      "beck": 6921,
      "amusing": 6922,
      "wht": 6923,
      "motion": 6924,
      "gree": 6925,
      "drums": 6926,
      "blogger": 6927,
      "chillax": 6928,
      "charged": 6929,
      "smiley": 6930,
      "spotify": 6931,
      "seniors": 6932,
      "gifts": 6933,
      "thrilled": 6934,
      "atlantic": 6935,
      "db": 6936,
      "pj": 6937,
      "tut": 6938,
      "wp": 6939,
      "enna": 6940,
      "enger": 6941,
      "belle": 6942,
      "baha": 6943,
      "poly": 6944,
      "showers": 6945,
      "madness": 6946,
      "lightening": 6947,
      "paperwork": 6948,
      "gggggggg": 6949,
      "captain": 6950,
      "grilled": 6951,
      "indiana": 6952,
      "daisies": 6953,
      "education": 6954,
      "jared": 6955,
      "mk": 6956,
      "wound": 6957,
      "ints": 6958,
      "chie": 6959,
      "worship": 6960,
      "pole": 6961,
      "ansas": 6962,
      "worlds": 6963,
      "networking": 6964,
      "handed": 6965,
      "standard": 6966,
      "venge": 6967,
      "ignored": 6968,
      "recession": 6969,
      "hk": 6970,
      "yt": 6971,
      "inc": 6972,
      "cops": 6973,
      "wales": 6974,
      "twittered": 6975,
      "yessss": 6976,
      "marsis": 6977,
      "postpon": 6978,
      "ios": 6979,
      "drives": 6980,
      "quila": 6981,
      "campa": 6982,
      "snoo": 6983,
      "switched": 6984,
      "ridiculously": 6985,
      "artists": 6986,
      "opra": 6987,
      "uary": 6988,
      "wom": 6989,
      "intell": 6990,
      "upstairs": 6991,
      "powers": 6992,
      "friendship": 6993,
      "tram": 6994,
      "zealand": 6995,
      "former": 6996,
      "direction": 6997,
      "brazili": 6998,
      "dryer": 6999,
      "gained": 7000,
      "muffins": 7001,
      "politics": 7002,
      "pearl": 7003,
      "perez": 7004,
      "marsiscoming": 7005,
      "bia": 7006,
      "rer": 7007,
      "wrest": 7008,
      "itas": 7009,
      "metho": 7010,
      "logged": 7011,
      "costu": 7012,
      "momm": 7013,
      "tease": 7014,
      "soooooooo": 7015,
      "layin": 7016,
      "slip": 7017,
      "buttons": 7018,
      "discussion": 7019,
      "convinced": 7020,
      "figuring": 7021,
      "bebo": 7022,
      "belive": 7023,
      "ribs": 7024,
      "dome": 7025,
      "bol": 7026,
      "hurley": 7027,
      "boobs": 7028,
      "sons": 7029,
      "brave": 7030,
      "channels": 7031,
      "colorado": 7032,
      "frog": 7033,
      "generally": 7034,
      "dddddddd": 7035,
      "humidity": 7036,
      "bamboozle": 7037,
      "lefto": 7038,
      "bou": 7039,
      "css": 7040,
      "dood": 7041,
      "yaa": 7042,
      "stere": 7043,
      "mau": 7044,
      "suic": 7045,
      "exter": 7046,
      "overcast": 7047,
      "cheesy": 7048,
      "production": 7049,
      "spots": 7050,
      "pointless": 7051,
      "material": 7052,
      "wendy": 7053,
      "francisco": 7054,
      "immediately": 7055,
      "alo": 7056,
      "bry": 7057,
      "anime": 7058,
      "steven": 7059,
      "lean": 7060,
      "peas": 7061,
      "tequila": 7062,
      "enty": 7063,
      "twitterfon": 7064,
      "lucy": 7065,
      "hibit": 7066,
      "oooooooooo": 7067,
      "stranger": 7068,
      "rents": 7069,
      "salvation": 7070,
      "fiction": 7071,
      "cases": 7072,
      "thrown": 7073,
      "pitts": 7074,
      "summers": 7075,
      "sweaty": 7076,
      "looove": 7077,
      "drunken": 7078,
      "bane": 7079,
      "melon": 7080,
      "hal": 7081,
      "napping": 7082,
      "newcastle": 7083,
      "goose": 7084,
      "salsa": 7085,
      "burns": 7086,
      "slice": 7087,
      "correctly": 7088,
      "econom": 7089,
      "bagel": 7090,
      "shifts": 7091,
      "jeremy": 7092,
      "oprah": 7093,
      "wre": 7094,
      "arest": 7095,
      "mai": 7096,
      "muah": 7097,
      "wwdc": 7098,
      "joint": 7099,
      "overwhel": 7100,
      "summertime": 7101,
      "jaw": 7102,
      "booze": 7103,
      "spears": 7104,
      "curly": 7105,
      "twisted": 7106,
      "showered": 7107,
      "ninja": 7108,
      "motorcycle": 7109,
      "knackered": 7110,
      "hbo": 7111,
      "kc": 7112,
      "influ": 7113,
      "reward": 7114,
      "eet": 7115,
      "beside": 7116,
      "upper": 7117,
      "ception": 7118,
      "nikki": 7119,
      "offered": 7120,
      "mikey": 7121,
      "pace": 7122,
      "gawd": 7123,
      "freaked": 7124,
      "grandmother": 7125,
      "depression": 7126,
      "pushed": 7127,
      "hmph": 7128,
      "understood": 7129,
      "fie": 7130,
      "ih": 7131,
      "mask": 7132,
      "oat": 7133,
      "erin": 7134,
      "keith": 7135,
      "poll": 7136,
      "zzi": 7137,
      "heheh": 7138,
      "numb": 7139,
      "attitude": 7140,
      "models": 7141,
      "speakers": 7142,
      "engage": 7143,
      "cabin": 7144,
      "european": 7145,
      "ceremony": 7146,
      "pixar": 7147,
      "penguins": 7148,
      "pid": 7149,
      "hail": 7150,
      "arrr": 7151,
      "uncomfortable": 7152,
      "shri": 7153,
      "enda": 7154,
      "redu": 7155,
      "phill": 7156,
      "highlight": 7157,
      "draft": 7158,
      "technic": 7159,
      "transport": 7160,
      "lemonade": 7161,
      "daisy": 7162,
      "carolina": 7163,
      "dw": 7164,
      "nbc": 7165,
      "ined": 7166,
      "login": 7167,
      "uns": 7168,
      "doggie": 7169,
      "cola": 7170,
      "ota": 7171,
      "prove": 7172,
      "ously": 7173,
      "cubs": 7174,
      "mails": 7175,
      "jonathan": 7176,
      "teams": 7177,
      "village": 7178,
      "melissa": 7179,
      "mystery": 7180,
      "cp": 7181,
      "thi": 7182,
      "newest": 7183,
      "sheep": 7184,
      "contempl": 7185,
      "hotter": 7186,
      "visible": 7187,
      "hunny": 7188,
      "smashed": 7189,
      "kenny": 7190,
      "tommy": 7191,
      "reminding": 7192,
      "flaw": 7193,
      "apologies": 7194,
      "bottles": 7195,
      "alternative": 7196,
      "batch": 7197,
      "cone": 7198,
      "slap": 7199,
      "rev": 7200,
      "ittle": 7201,
      "arizon": 7202,
      "ashi": 7203,
      "default": 7204,
      "tails": 7205,
      "mans": 7206,
      "harsh": 7207,
      "netflix": 7208,
      "sonny": 7209,
      "porch": 7210,
      "hahha": 7211,
      "loveee": 7212,
      "sheet": 7213,
      "rupt": 7214,
      "pirate": 7215,
      "gcse": 7216,
      "daughters": 7217,
      "cm": 7218,
      "gall": 7219,
      "leeds": 7220,
      "yip": 7221,
      "stil": 7222,
      "aded": 7223,
      "waffles": 7224,
      "cracking": 7225,
      "setup": 7226,
      "vaca": 7227,
      "basic": 7228,
      "rette": 7229,
      "caramel": 7230,
      "technically": 7231,
      "imo": 7232,
      "oli": 7233,
      "ral": 7234,
      "informed": 7235,
      "anxi": 7236,
      "tomo": 7237,
      "tomoro": 7238,
      "ooc": 7239,
      "chy": 7240,
      "twenty": 7241,
      "shite": 7242,
      "suits": 7243,
      "pathy": 7244,
      "actress": 7245,
      "boxing": 7246,
      "spoon": 7247,
      "bruised": 7248,
      "settled": 7249,
      "climbing": 7250,
      "matthew": 7251,
      "kent": 7252,
      "anas": 7253,
      "yest": 7254,
      "perman": 7255,
      "apples": 7256,
      "crawl": 7257,
      "shared": 7258,
      "sings": 7259,
      "addition": 7260,
      "juli": 7261,
      "aku": 7262,
      "fireworks": 7263,
      "unique": 7264,
      "williams": 7265,
      "kfc": 7266,
      "reve": 7267,
      "haaa": 7268,
      "liber": 7269,
      "tack": 7270,
      "funky": 7271,
      "mister": 7272,
      "bub": 7273,
      "counts": 7274,
      "mature": 7275,
      "archie": 7276,
      "anticip": 7277,
      "explode": 7278,
      "exhausting": 7279,
      "bikini": 7280,
      "philo": 7281,
      "tampa": 7282,
      "kins": 7283,
      "contain": 7284,
      "leather": 7285,
      "shocking": 7286,
      "hub": 7287,
      "trace": 7288,
      "blocks": 7289,
      "medical": 7290,
      "owned": 7291,
      "calories": 7292,
      "xoxox": 7293,
      "bene": 7294,
      "expert": 7295,
      "farewell": 7296,
      "determin": 7297,
      "postponed": 7298,
      "peep": 7299,
      "pong": 7300,
      "tomm": 7301,
      "errr": 7302,
      "wick": 7303,
      "fund": 7304,
      "yeahhh": 7305,
      "carrad": 7306,
      "gnite": 7307,
      "teddy": 7308,
      "charm": 7309,
      "ordering": 7310,
      "queue": 7311,
      "belated": 7312,
      "potatoes": 7313,
      "particularly": 7314,
      "indonesia": 7315,
      "alie": 7316,
      "das": 7317,
      "dash": 7318,
      "ewwww": 7319,
      "lane": 7320,
      "tling": 7321,
      "yuk": 7322,
      "teas": 7323,
      "jog": 7324,
      "sleepin": 7325,
      "drool": 7326,
      "julie": 7327,
      "strate": 7328,
      "stretch": 7329,
      "hype": 7330,
      "addict": 7331,
      "flavor": 7332,
      "lamb": 7333,
      "operation": 7334,
      "conversations": 7335,
      "announcement": 7336,
      "spencer": 7337,
      "awaiting": 7338,
      "cage": 7339,
      "jac": 7340,
      "samp": 7341,
      "ym": 7342,
      "towel": 7343,
      "ified": 7344,
      "cheat": 7345,
      "scor": 7346,
      "sweetest": 7347,
      "cord": 7348,
      "charging": 7349,
      "solve": 7350,
      "sticky": 7351,
      "entirely": 7352,
      "relieve": 7353,
      "snuggle": 7354,
      "arizona": 7355,
      "carradine": 7356,
      "grain": 7357,
      "olive": 7358,
      "reset": 7359,
      "youuuu": 7360,
      "lewis": 7361,
      "hola": 7362,
      "advis": 7363,
      "lovers": 7364,
      "whoops": 7365,
      "ante": 7366,
      "weeds": 7367,
      "excl": 7368,
      "iley": 7369,
      "cue": 7370,
      "voc": 7371,
      "freeze": 7372,
      "lunchtime": 7373,
      "clicked": 7374,
      "unfortunate": 7375,
      "gardens": 7376,
      "disappointment": 7377,
      "jenni": 7378,
      "recommended": 7379,
      "mistakes": 7380,
      "ditions": 7381,
      "anthony": 7382,
      "campaign": 7383,
      "vint": 7384,
      "veggie": 7385,
      "niley": 7386,
      "newspa": 7387,
      "wishin": 7388,
      "ggage": 7389,
      "carni": 7390,
      "enjoyable": 7391,
      "barbe": 7392,
      "ooooooooo": 7393,
      "boards": 7394,
      "kitties": 7395,
      "understanding": 7396,
      "digging": 7397,
      "recei": 7398,
      "recommendations": 7399,
      "survivor": 7400,
      "ihop": 7401,
      "jin": 7402,
      "nm": 7403,
      "plot": 7404,
      "vag": 7405,
      "injury": 7406,
      "raging": 7407,
      "shhh": 7408,
      "folio": 7409,
      "happily": 7410,
      "bran": 7411,
      "bras": 7412,
      "aaaaaaa": 7413,
      "curl": 7414,
      "vacay": 7415,
      "smaller": 7416,
      "designs": 7417,
      "mountains": 7418,
      "experiment": 7419,
      "paula": 7420,
      "gnight": 7421,
      "vee": 7422,
      "soy": 7423,
      "quer": 7424,
      "giveaway": 7425,
      "symp": 7426,
      "rocky": 7427,
      "pedi": 7428,
      "realizing": 7429,
      "scored": 7430,
      "aaaaaaaaaaaaaaaa": 7431,
      "spelled": 7432,
      "required": 7433,
      "cies": 7434,
      "resto": 7435,
      "melo": 7436,
      "admin": 7437,
      "urself": 7438,
      "shore": 7439,
      "cram": 7440,
      "killin": 7441,
      "simps": 7442,
      "drake": 7443,
      "scratched": 7444,
      "sophie": 7445,
      "holland": 7446,
      "tokyo": 7447,
      "procrastinating": 7448,
      "spongebob": 7449,
      "hir": 7450,
      "uf": 7451,
      "asis": 7452,
      "lorette": 7453,
      "lator": 7454,
      "todayy": 7455,
      "ssa": 7456,
      "comics": 7457,
      "betty": 7458,
      "nerves": 7459,
      "disease": 7460,
      "stuffy": 7461,
      "yyyyyy": 7462,
      "ports": 7463,
      "essays": 7464,
      "kok": 7465,
      "mma": 7466,
      "ology": 7467,
      "rss": 7468,
      "anie": 7469,
      "aling": 7470,
      "peak": 7471,
      "yell": 7472,
      "wax": 7473,
      "homesick": 7474,
      "grin": 7475,
      "tweeties": 7476,
      "betta": 7477,
      "disk": 7478,
      "blocking": 7479,
      "choices": 7480,
      "risk": 7481,
      "flops": 7482,
      "auntie": 7483,
      "require": 7484,
      "sprink": 7485,
      "pineapple": 7486,
      "mosquito": 7487,
      "audience": 7488,
      "threat": 7489,
      "kak": 7490,
      "pag": 7491,
      "ura": 7492,
      "heidi": 7493,
      "unlike": 7494,
      "yelling": 7495,
      "phr": 7496,
      "monica": 7497,
      "divine": 7498,
      "burst": 7499,
      "govern": 7500,
      "healing": 7501,
      "heehee": 7502,
      "addicting": 7503,
      "desert": 7504,
      "mainly": 7505,
      "ruining": 7506,
      "promotion": 7507,
      "kong": 7508,
      "tz": 7509,
      "notific": 7510,
      "ams": 7511,
      "rier": 7512,
      "molly": 7513,
      "coulda": 7514,
      "crum": 7515,
      "aska": 7516,
      "dressing": 7517,
      "destroyed": 7518,
      "thirsty": 7519,
      "pokemon": 7520,
      "achieve": 7521,
      "brooke": 7522,
      "anxiety": 7523,
      "vintage": 7524,
      "fag": 7525,
      "html": 7526,
      "kr": 7527,
      "mwah": 7528,
      "pul": 7529,
      "meow": 7530,
      "android": 7531,
      "adjust": 7532,
      "robe": 7533,
      "missy": 7534,
      "hike": 7535,
      "valid": 7536,
      "remembering": 7537,
      "touring": 7538,
      "filter": 7539,
      "ssssss": 7540,
      "allows": 7541,
      "lifetime": 7542,
      "contemplating": 7543,
      "leo": 7544,
      "unpacking": 7545,
      "fective": 7546,
      "twitting": 7547,
      "sphere": 7548,
      "visitor": 7549,
      "dino": 7550,
      "witness": 7551,
      "ridge": 7552,
      "larry": 7553,
      "extended": 7554,
      "russian": 7555,
      "guests": 7556,
      "biscuits": 7557,
      "gahh": 7558,
      "looooo": 7559,
      "slack": 7560,
      "tp": 7561,
      "asse": 7562,
      "donate": 7563,
      "wayne": 7564,
      "marie": 7565,
      "shares": 7566,
      "lottery": 7567,
      "chillen": 7568,
      "uuuuu": 7569,
      "champagne": 7570,
      "arrange": 7571,
      "activity": 7572,
      "constant": 7573,
      "dedicated": 7574,
      "modern": 7575,
      "pepsi": 7576,
      "proposal": 7577,
      "ahahah": 7578,
      "ients": 7579,
      "lers": 7580,
      "nay": 7581,
      "thur": 7582,
      "anal": 7583,
      "kell": 7584,
      "moi": 7585,
      "icas": 7586,
      "rights": 7587,
      "typo": 7588,
      "ggas": 7589,
      "eats": 7590,
      "roots": 7591,
      "boohoo": 7592,
      "heartbroken": 7593,
      "rising": 7594,
      "stealing": 7595,
      "ditto": 7596,
      "wrapped": 7597,
      "sql": 7598,
      "stewart": 7599,
      "aqu": 7600,
      "bond": 7601,
      "egy": 7602,
      "oul": 7603,
      "yous": 7604,
      "gokey": 7605,
      "mot": 7606,
      "goodies": 7607,
      "convention": 7608,
      "dairy": 7609,
      "clothing": 7610,
      "cuppa": 7611,
      "misss": 7612,
      "element": 7613,
      "nursing": 7614,
      "hiccups": 7615,
      "encourage": 7616,
      "pittsburgh": 7617,
      "wand": 7618,
      "yan": 7619,
      "oral": 7620,
      "stain": 7621,
      "chloe": 7622,
      "mow": 7623,
      "quet": 7624,
      "sprained": 7625,
      "blend": 7626,
      "overslept": 7627,
      "acc": 7628,
      "stav": 7629,
      "fortune": 7630,
      "guns": 7631,
      "publi": 7632,
      "victory": 7633,
      "swap": 7634,
      "religion": 7635,
      "drain": 7636,
      "gps": 7637,
      "knot": 7638,
      "vari": 7639,
      "zach": 7640,
      "relay": 7641,
      "nostal": 7642,
      "heath": 7643,
      "tier": 7644,
      "cott": 7645,
      "woulda": 7646,
      "serving": 7647,
      "volu": 7648,
      "brick": 7649,
      "election": 7650,
      "writers": 7651,
      "drug": 7652,
      "broadband": 7653,
      "squirrel": 7654,
      "dats": 7655,
      "tread": 7656,
      "uhhh": 7657,
      "annie": 7658,
      "restore": 7659,
      "below": 7660,
      "utner": 7661,
      "whirl": 7662,
      "raised": 7663,
      "someones": 7664,
      "devast": 7665,
      "lastnight": 7666,
      "sunscreen": 7667,
      "brut": 7668,
      "girlfriends": 7669,
      "trial": 7670,
      "weds": 7671,
      "compare": 7672,
      "patio": 7673,
      "blessing": 7674,
      "opard": 7675,
      "festiv": 7676,
      "crimin": 7677,
      "fty": 7678,
      "ova": 7679,
      "tox": 7680,
      "revenge": 7681,
      "amo": 7682,
      "morris": 7683,
      "yelled": 7684,
      "hometown": 7685,
      "fuel": 7686,
      "phon": 7687,
      "acct": 7688,
      "ables": 7689,
      "stuffs": 7690,
      "grades": 7691,
      "cartoon": 7692,
      "cya": 7693,
      "tomar": 7694,
      "returning": 7695,
      "retire": 7696,
      "stadium": 7697,
      "bahaha": 7698,
      "oww": 7699,
      "caused": 7700,
      "studied": 7701,
      "booking": 7702,
      "clark": 7703,
      "winners": 7704,
      "puke": 7705,
      "pudding": 7706,
      "brigh": 7707,
      "batman": 7708,
      "touching": 7709,
      "upsetting": 7710,
      "adobe": 7711,
      "dirt": 7712,
      "requests": 7713,
      "deleting": 7714,
      "television": 7715,
      "industry": 7716,
      "fwd": 7717,
      "oasis": 7718,
      "haw": 7719,
      "alert": 7720,
      "exhibit": 7721,
      "joel": 7722,
      "steam": 7723,
      "abled": 7724,
      "treating": 7725,
      "xoxoxo": 7726,
      "presso": 7727,
      "skipping": 7728,
      "practically": 7729,
      "virginia": 7730,
      "satisfied": 7731,
      "upgraded": 7732,
      "technical": 7733,
      "brazilian": 7734,
      "external": 7735,
      "phrase": 7736,
      "ela": 7737,
      "ehh": 7738,
      "hou": 7739,
      "forth": 7740,
      "una": 7741,
      "riot": 7742,
      "mahon": 7743,
      "suite": 7744,
      "faves": 7745,
      "grat": 7746,
      "omgosh": 7747,
      "bikes": 7748,
      "tical": 7749,
      "doug": 7750,
      "holds": 7751,
      "sandwi": 7752,
      "queens": 7753,
      "premier": 7754,
      "chasing": 7755,
      "blister": 7756,
      "noodle": 7757,
      "cass": 7758,
      "dere": 7759,
      "hater": 7760,
      "hamp": 7761,
      "kewl": 7762,
      "seo": 7763,
      "mocha": 7764,
      "poppin": 7765,
      "item": 7766,
      "sung": 7767,
      "sunrise": 7768,
      "diag": 7769,
      "ggles": 7770,
      "earn": 7771,
      "serv": 7772,
      "selfish": 7773,
      "birming": 7774,
      "posters": 7775,
      "pilot": 7776,
      "complex": 7777,
      "eleph": 7778,
      "directly": 7779,
      "multiply": 7780,
      "regents": 7781,
      "regardless": 7782,
      "brisbane": 7783,
      "yankees": 7784,
      "false": 7785,
      "df": 7786,
      "howard": 7787,
      "thang": 7788,
      "anya": 7789,
      "lols": 7790,
      "sleeee": 7791,
      "dylan": 7792,
      "paw": 7793,
      "glam": 7794,
      "opens": 7795,
      "stration": 7796,
      "rence": 7797,
      "annual": 7798,
      "spammers": 7799,
      "claire": 7800,
      "summit": 7801,
      "subscribe": 7802,
      "oaks": 7803,
      "cn": 7804,
      "ez": 7805,
      "iphones": 7806,
      "kg": 7807,
      "kie": 7808,
      "wooooo": 7809,
      "yar": 7810,
      "stit": 7811,
      "envir": 7812,
      "tivo": 7813,
      "bathe": 7814,
      "sucking": 7815,
      "agent": 7816,
      "reads": 7817,
      "grease": 7818,
      "viewed": 7819,
      "oldest": 7820,
      "hottie": 7821,
      "aud": 7822,
      "chilled": 7823,
      "lona": 7824,
      "trainer": 7825,
      "attractive": 7826,
      "electricity": 7827,
      "philosoph": 7828,
      "government": 7829,
      "sandwiches": 7830,
      "pple": 7831,
      "tah": 7832,
      "happend": 7833,
      "buffa": 7834,
      "crab": 7835,
      "listers": 7836,
      "carl": 7837,
      "wondered": 7838,
      "netbook": 7839,
      "biking": 7840,
      "casa": 7841,
      "hono": 7842,
      "considered": 7843,
      "cinnam": 7844,
      "promote": 7845,
      "lifes": 7846,
      "confirmation": 7847,
      "birmingham": 7848,
      "bcuz": 7849,
      "eps": 7850,
      "qq": 7851,
      "yoo": 7852,
      "revolution": 7853,
      "seb": 7854,
      "neil": 7855,
      "ict": 7856,
      "baker": 7857,
      "geon": 7858,
      "tomorrows": 7859,
      "byes": 7860,
      "shown": 7861,
      "pron": 7862,
      "barce": 7863,
      "andyhurley": 7864,
      "vanessa": 7865,
      "snacks": 7866,
      "embarrassing": 7867,
      "bachelorette": 7868,
      "oatmeal": 7869,
      "brighton": 7870,
      "bart": 7871,
      "font": 7872,
      "tower": 7873,
      "isra": 7874,
      "hawk": 7875,
      "allllll": 7876,
      "weigh": 7877,
      "western": 7878,
      "sac": 7879,
      "clown": 7880,
      "milton": 7881,
      "director": 7882,
      "stones": 7883,
      "generation": 7884,
      "bruce": 7885,
      "programming": 7886,
      "nooooooo": 7887,
      "antibio": 7888,
      "cuddling": 7889,
      "registered": 7890,
      "srry": 7891,
      "shades": 7892,
      "filipin": 7893,
      "suspect": 7894,
      "smack": 7895,
      "tc": 7896,
      "index": 7897,
      "isha": 7898,
      "adul": 7899,
      "wassup": 7900,
      "shann": 7901,
      "sees": 7902,
      "wayyy": 7903,
      "causing": 7904,
      "fudge": 7905,
      "wherever": 7906,
      "chop": 7907,
      "frequ": 7908,
      "horrid": 7909,
      "iiiii": 7910,
      "looong": 7911,
      "secrets": 7912,
      "hoodie": 7913,
      "bangs": 7914,
      "circus": 7915,
      "specific": 7916,
      "reallly": 7917,
      "poisoning": 7918,
      "scription": 7919,
      "scenes": 7920,
      "construction": 7921,
      "temperature": 7922,
      "shrimp": 7923,
      "carnival": 7924,
      "buffalo": 7925,
      "dump": 7926,
      "inner": 7927,
      "theless": 7928,
      "orting": 7929,
      "sten": 7930,
      "steel": 7931,
      "semin": 7932,
      "deer": 7933,
      "wakes": 7934,
      "fame": 7935,
      "ourselves": 7936,
      "ohmy": 7937,
      "lasts": 7938,
      "mucho": 7939,
      "buds": 7940,
      "pero": 7941,
      "caring": 7942,
      "shade": 7943,
      "corpor": 7944,
      "blogtv": 7945,
      "macs": 7946,
      "mcmahon": 7947,
      "vacations": 7948,
      "springs": 7949,
      "nanny": 7950,
      "scares": 7951,
      "celtics": 7952,
      "granny": 7953,
      "balloon": 7954,
      "describe": 7955,
      "gallery": 7956,
      "greece": 7957,
      "environ": 7958,
      "blisters": 7959,
      "dms": 7960,
      "frow": 7961,
      "iny": 7962,
      "ati": 7963,
      "itive": 7964,
      "strea": 7965,
      "canon": 7966,
      "mains": 7967,
      "abby": 7968,
      "icing": 7969,
      "succ": 7970,
      "tak": 7971,
      "twitterific": 7972,
      "hiking": 7973,
      "portfolio": 7974,
      "cham": 7975,
      "valent": 7976,
      "woooh": 7977,
      "snake": 7978,
      "tttttttt": 7979,
      "jailbreak": 7980,
      "swedish": 7981,
      "photographer": 7982,
      "stroke": 7983,
      "responsible": 7984,
      "bd": 7985,
      "relate": 7986,
      "ativity": 7987,
      "mellow": 7988,
      "ases": 7989,
      "bei": 7990,
      "sewing": 7991,
      "lyk": 7992,
      "endless": 7993,
      "lucas": 7994,
      "cist": 7995,
      "penny": 7996,
      "walks": 7997,
      "choir": 7998,
      "ringing": 7999,
      "internets": 8000,
      "itching": 8001,
      "comming": 8002,
      "flag": 8003,
      "bruise": 8004,
      "bothering": 8005,
      "kayla": 8006,
      "sheesh": 8007,
      "volunteer": 8008,
      "innocent": 8009,
      "companies": 8010,
      "barcelona": 8011,
      "apa": 8012,
      "crip": 8013,
      "retail": 8014,
      "stiff": 8015,
      "wight": 8016,
      "aline": 8017,
      "pest": 8018,
      "morgan": 8019,
      "sched": 8020,
      "yearbook": 8021,
      "elbow": 8022,
      "beautif": 8023,
      "sends": 8024,
      "footage": 8025,
      "shucks": 8026,
      "zombies": 8027,
      "diamond": 8028,
      "eth": 8029,
      "fart": 8030,
      "hve": 8031,
      "nana": 8032,
      "roses": 8033,
      "seas": 8034,
      "pea": 8035,
      "icle": 8036,
      "popping": 8037,
      "ishment": 8038,
      "followin": 8039,
      "galore": 8040,
      "marsh": 8041,
      "booty": 8042,
      "chai": 8043,
      "strang": 8044,
      "juss": 8045,
      "obsession": 8046,
      "tesco": 8047,
      "spiders": 8048,
      "practicing": 8049,
      "abandoned": 8050,
      "stavros": 8051,
      "cinnamon": 8052,
      "fk": 8053,
      "nga": 8054,
      "ov": 8055,
      "pwn": 8056,
      "snoring": 8057,
      "uno": 8058,
      "loan": 8059,
      "amused": 8060,
      "height": 8061,
      "unfollowed": 8062,
      "outdoor": 8063,
      "fax": 8064,
      "homeless": 8065,
      "migr": 8066,
      "mickey": 8067,
      "tyleno": 8068,
      "tutor": 8069,
      "ducks": 8070,
      "stepped": 8071,
      "curve": 8072,
      "sentence": 8073,
      "century": 8074,
      "dunkin": 8075,
      "giggle": 8076,
      "resume": 8077,
      "pastor": 8078,
      "errors": 8079,
      "shuffle": 8080,
      "crisis": 8081,
      "aja": 8082,
      "bn": 8083,
      "hats": 8084,
      "ito": 8085,
      "ml": 8086,
      "pil": 8087,
      "aby": 8088,
      "shan": 8089,
      "conveni": 8090,
      "sorts": 8091,
      "gras": 8092,
      "ignor": 8093,
      "ives": 8094,
      "shoppin": 8095,
      "trapped": 8096,
      "plains": 8097,
      "cloth": 8098,
      "pire": 8099,
      "magical": 8100,
      "learnt": 8101,
      "mrw": 8102,
      "genu": 8103,
      "powerful": 8104,
      "storming": 8105,
      "connecting": 8106,
      "spoken": 8107,
      "lences": 8108,
      "slides": 8109,
      "toothache": 8110,
      "sweating": 8111,
      "router": 8112,
      "rubbing": 8113,
      "referring": 8114,
      "tribute": 8115,
      "financial": 8116,
      "sponsor": 8117,
      "flawless": 8118,
      "rn": 8119,
      "stim": 8120,
      "stamp": 8121,
      "veg": 8122,
      "justice": 8123,
      "neva": 8124,
      "boiling": 8125,
      "tasted": 8126,
      "sail": 8127,
      "pher": 8128,
      "scrap": 8129,
      "supply": 8130,
      "kiddo": 8131,
      "ballet": 8132,
      "tina": 8133,
      "latin": 8134,
      "pony": 8135,
      "designing": 8136,
      "debating": 8137,
      "advertising": 8138,
      "pattern": 8139,
      "poetry": 8140,
      "orientation": 8141,
      "mourning": 8142,
      "aya": 8143,
      "andrea": 8144,
      "needa": 8145,
      "gel": 8146,
      "sleepless": 8147,
      "cheating": 8148,
      "badass": 8149,
      "packet": 8150,
      "dice": 8151,
      "appet": 8152,
      "cullen": 8153,
      "greens": 8154,
      "pairs": 8155,
      "returns": 8156,
      "switching": 8157,
      "psych": 8158,
      "rupted": 8159,
      "ghetti": 8160,
      "burrito": 8161,
      "tylenol": 8162,
      "dn": 8163,
      "isy": 8164,
      "hab": 8165,
      "wipe": 8166,
      "laughter": 8167,
      "pel": 8168,
      "weet": 8169,
      "romance": 8170,
      "rows": 8171,
      "storage": 8172,
      "acy": 8173,
      "gathering": 8174,
      "mayb": 8175,
      "visa": 8176,
      "cran": 8177,
      "clips": 8178,
      "viet": 8179,
      "vacu": 8180,
      "arghh": 8181,
      "bullet": 8182,
      "successfully": 8183,
      "tradition": 8184,
      "tomatoes": 8185,
      "recognize": 8186,
      "determined": 8187,
      "cnn": 8188,
      "jah": 8189,
      "pond": 8190,
      "thu": 8191,
      "ortho": 8192,
      "strep": 8193,
      "ario": 8194,
      "laz": 8195,
      "suns": 8196,
      "buh": 8197,
      "dubai": 8198,
      "hottest": 8199,
      "fringe": 8200,
      "grave": 8201,
      "tuna": 8202,
      "yummm": 8203,
      "natalie": 8204,
      "gigg": 8205,
      "responding": 8206,
      "pigs": 8207,
      "avoiding": 8208,
      "patiently": 8209,
      "tacular": 8210,
      "symptoms": 8211,
      "volume": 8212,
      "jama": 8213,
      "lool": 8214,
      "rash": 8215,
      "wnt": 8216,
      "itt": 8217,
      "cody": 8218,
      "tale": 8219,
      "wai": 8220,
      "glory": 8221,
      "fier": 8222,
      "listing": 8223,
      "hurri": 8224,
      "runny": 8225,
      "highschool": 8226,
      "sticking": 8227,
      "stronger": 8228,
      "correction": 8229,
      "plugin": 8230,
      "whisper": 8231,
      "condolences": 8232,
      "suicide": 8233,
      "ae": 8234,
      "clap": 8235,
      "evid": 8236,
      "kip": 8237,
      "nys": 8238,
      "opt": 8239,
      "twe": 8240,
      "ully": 8241,
      "cobra": 8242,
      "urally": 8243,
      "assess": 8244,
      "diving": 8245,
      "fiance": 8246,
      "skating": 8247,
      "bbm": 8248,
      "favs": 8249,
      "brill": 8250,
      "freaky": 8251,
      "teehee": 8252,
      "knitting": 8253,
      "stickam": 8254,
      "awwwwww": 8255,
      "imax": 8256,
      "sharp": 8257,
      "fourth": 8258,
      "tags": 8259,
      "organic": 8260,
      "vitamin": 8261,
      "vegetarian": 8262,
      "shorter": 8263,
      "eld": 8264,
      "jade": 8265,
      "noises": 8266,
      "soaking": 8267,
      "alle": 8268,
      "teasing": 8269,
      "exception": 8270,
      "spreading": 8271,
      "kingdom": 8272,
      "pale": 8273,
      "leak": 8274,
      "fia": 8275,
      "lighter": 8276,
      "denmark": 8277,
      "istan": 8278,
      "printing": 8279,
      "microwave": 8280,
      "responded": 8281,
      "youngest": 8282,
      "neglected": 8283,
      "integr": 8284,
      "chad": 8285,
      "cil": 8286,
      "pjs": 8287,
      "infected": 8288,
      "toll": 8289,
      "goals": 8290,
      "whooo": 8291,
      "wemble": 8292,
      "cocon": 8293,
      "quil": 8294,
      "cave": 8295,
      "sil": 8296,
      "luggage": 8297,
      "types": 8298,
      "disagree": 8299,
      "lighting": 8300,
      "werent": 8301,
      "syrup": 8302,
      "danced": 8303,
      "highlights": 8304,
      "twist": 8305,
      "lmaoo": 8306,
      "collect": 8307,
      "sexual": 8308,
      "figures": 8309,
      "jammin": 8310,
      "russell": 8311,
      "butterfly": 8312,
      "assuming": 8313,
      "nascar": 8314,
      "dodgers": 8315,
      "recie": 8316,
      "communication": 8317,
      "malaysia": 8318,
      "bend": 8319,
      "dk": 8320,
      "dmb": 8321,
      "ires": 8322,
      "karen": 8323,
      "rh": 8324,
      "sissy": 8325,
      "independ": 8326,
      "onion": 8327,
      "atically": 8328,
      "sti": 8329,
      "stum": 8330,
      "likey": 8331,
      "fuzz": 8332,
      "compat": 8333,
      "promising": 8334,
      "cheek": 8335,
      "bananas": 8336,
      "dollhouse": 8337,
      "engers": 8338,
      "creek": 8339,
      "approved": 8340,
      "treatment": 8341,
      "delish": 8342,
      "cartoons": 8343,
      "horribly": 8344,
      "illegal": 8345,
      "vomit": 8346,
      "avi": 8347,
      "cie": 8348,
      "drained": 8349,
      "gid": 8350,
      "lates": 8351,
      "pam": 8352,
      "tf": 8353,
      "vig": 8354,
      "incident": 8355,
      "rell": 8356,
      "stare": 8357,
      "arly": 8358,
      "begun": 8359,
      "maps": 8360,
      "pless": 8361,
      "fuzzy": 8362,
      "stoma": 8363,
      "bul": 8364,
      "clay": 8365,
      "wol": 8366,
      "traged": 8367,
      "rooting": 8368,
      "hunter": 8369,
      "hunger": 8370,
      "planes": 8371,
      "messenger": 8372,
      "salmon": 8373,
      "ontd": 8374,
      "travelling": 8375,
      "applications": 8376,
      "confident": 8377,
      "wagon": 8378,
      "safety": 8379,
      "costume": 8380,
      "wembley": 8381,
      "imac": 8382,
      "methinks": 8383,
      "logging": 8384,
      "cken": 8385,
      "laho": 8386,
      "bali": 8387,
      "agenda": 8388,
      "tasting": 8389,
      "cait": 8390,
      "diddy": 8391,
      "sleeep": 8392,
      "twitterworld": 8393,
      "harris": 8394,
      "jean": 8395,
      "sweety": 8396,
      "colds": 8397,
      "julia": 8398,
      "hump": 8399,
      "hayley": 8400,
      "spaghetti": 8401,
      "loooove": 8402,
      "batteries": 8403,
      "treadmill": 8404,
      "pum": 8405,
      "woh": 8406,
      "yon": 8407,
      "yaaaay": 8408,
      "thts": 8409,
      "hallo": 8410,
      "andre": 8411,
      "cht": 8412,
      "becomes": 8413,
      "allison": 8414,
      "tires": 8415,
      "seee": 8416,
      "exe": 8417,
      "nds": 8418,
      "comcast": 8419,
      "acts": 8420,
      "sidekick": 8421,
      "picks": 8422,
      "goog": 8423,
      "pinky": 8424,
      "organized": 8425,
      "frankie": 8426,
      "slower": 8427,
      "tiffany": 8428,
      "pandora": 8429,
      "mj": 8430,
      "von": 8431,
      "chow": 8432,
      "homies": 8433,
      "adays": 8434,
      "washer": 8435,
      "races": 8436,
      "defo": 8437,
      "subs": 8438,
      "shelf": 8439,
      "asses": 8440,
      "peru": 8441,
      "playoffs": 8442,
      "keeper": 8443,
      "checkin": 8444,
      "fris": 8445,
      "brownie": 8446,
      "casino": 8447,
      "sarcas": 8448,
      "spamming": 8449,
      "approve": 8450,
      "wheels": 8451,
      "eliza": 8452,
      "loooong": 8453,
      "waaay": 8454,
      "relieved": 8455,
      "_t": 8456,
      "fck": 8457,
      "jp": 8458,
      "kend": 8459,
      "rust": 8460,
      "tj": 8461,
      "unlimited": 8462,
      "upp": 8463,
      "dew": 8464,
      "agen": 8465,
      "offers": 8466,
      "iland": 8467,
      "jection": 8468,
      "kiddos": 8469,
      "sats": 8470,
      "aaaaay": 8471,
      "treats": 8472,
      "perfectworld": 8473,
      "celebrit": 8474,
      "univers": 8475,
      "cameras": 8476,
      "speaker": 8477,
      "emotions": 8478,
      "hidden": 8479,
      "idiots": 8480,
      "ubertwitter": 8481,
      "pacific": 8482,
      "bounce": 8483,
      "duper": 8484,
      "gals": 8485,
      "hong": 8486,
      "ido": 8487,
      "pis": 8488,
      "pse": 8489,
      "rally": 8490,
      "wheat": 8491,
      "itter": 8492,
      "nao": 8493,
      "seek": 8494,
      "ishing": 8495,
      "sipping": 8496,
      "jogging": 8497,
      "bleach": 8498,
      "glee": 8499,
      "minis": 8500,
      "breast": 8501,
      "olds": 8502,
      "specially": 8503,
      "angeles": 8504,
      "border": 8505,
      "restless": 8506,
      "northern": 8507,
      "inaperfectworld": 8508,
      "uggh": 8509,
      "wallpaper": 8510,
      "billion": 8511,
      "developer": 8512,
      "featured": 8513,
      "andyhurleyday": 8514,
      "rry": 8515,
      "yeee": 8516,
      "outlook": 8517,
      "debut": 8518,
      "fel": 8519,
      "prevent": 8520,
      "byee": 8521,
      "travis": 8522,
      "freezer": 8523,
      "highway": 8524,
      "swallow": 8525,
      "accounting": 8526,
      "entered": 8527,
      "alien": 8528,
      "fights": 8529,
      "arrives": 8530,
      "loosing": 8531,
      "irritated": 8532,
      "exclusive": 8533,
      "antibiotics": 8534,
      "genuine": 8535,
      "alike": 8536,
      "elli": 8537,
      "td": 8538,
      "zin": 8539,
      "liest": 8540,
      "dock": 8541,
      "codes": 8542,
      "waaa": 8543,
      "waaaay": 8544,
      "fff": 8545,
      "birthdays": 8546,
      "bots": 8547,
      "uniform": 8548,
      "naturally": 8549,
      "johnson": 8550,
      "zzzzz": 8551,
      "chapters": 8552,
      "travels": 8553,
      "designed": 8554,
      "sympathy": 8555,
      "confidence": 8556,
      "clinic": 8557,
      "rejected": 8558,
      "shannon": 8559,
      "iya": 8560,
      "kard": 8561,
      "sb": 8562,
      "mets": 8563,
      "leah": 8564,
      "soak": 8565,
      "chronic": 8566,
      "admi": 8567,
      "wiped": 8568,
      "nowadays": 8569,
      "moan": 8570,
      "nacho": 8571,
      "ookie": 8572,
      "feli": 8573,
      "monsters": 8574,
      "earrings": 8575,
      "sitive": 8576,
      "bball": 8577,
      "julian": 8578,
      "treated": 8579,
      "viewing": 8580,
      "dragging": 8581,
      "commented": 8582,
      "fatty": 8583,
      "clearing": 8584,
      "refreshed": 8585,
      "zoe": 8586,
      "translation": 8587,
      "categor": 8588,
      "trampo": 8589,
      "boooooo": 8590,
      "kb": 8591,
      "nada": 8592,
      "pamp": 8593,
      "recovered": 8594,
      "mez": 8595,
      "meeeee": 8596,
      "lend": 8597,
      "leaf": 8598,
      "depri": 8599,
      "twitts": 8600,
      "proto": 8601,
      "greatly": 8602,
      "downside": 8603,
      "girlies": 8604,
      "carrie": 8605,
      "shadow": 8606,
      "roomie": 8607,
      "monthly": 8608,
      "trey": 8609,
      "calcul": 8610,
      "garbage": 8611,
      "humans": 8612,
      "melting": 8613,
      "pooped": 8614,
      "attached": 8615,
      "kudos": 8616,
      "millionaire": 8617,
      "chipot": 8618,
      "rasp": 8619,
      "henry": 8620,
      "courtney": 8621,
      "argument": 8622,
      "knife": 8623,
      "benefit": 8624,
      "israel": 8625,
      "htt": 8626,
      "mwa": 8627,
      "mcr": 8628,
      "nvm": 8629,
      "tshirt": 8630,
      "yur": 8631,
      "oni": 8632,
      "stir": 8633,
      "illness": 8634,
      "tastic": 8635,
      "hahahahah": 8636,
      "needles": 8637,
      "tuck": 8638,
      "davis": 8639,
      "yayyyy": 8640,
      "parag": 8641,
      "ashton": 8642,
      "jungle": 8643,
      "laptops": 8644,
      "cellphone": 8645,
      "merch": 8646,
      "roads": 8647,
      "millions": 8648,
      "bald": 8649,
      "brains": 8650,
      "cuddles": 8651,
      "physically": 8652,
      "terrified": 8653,
      "membership": 8654,
      "celebrities": 8655,
      "chipotle": 8656,
      "zip": 8657,
      "antoni": 8658,
      "behave": 8659,
      "heater": 8660,
      "cans": 8661,
      "lautner": 8662,
      "abor": 8663,
      "poem": 8664,
      "faint": 8665,
      "sized": 8666,
      "mild": 8667,
      "provide": 8668,
      "ruins": 8669,
      "foreign": 8670,
      "hubs": 8671,
      "stein": 8672,
      "shaw": 8673,
      "musso": 8674,
      "runner": 8675,
      "hehehehe": 8676,
      "gene": 8677,
      "casey": 8678,
      "sumthin": 8679,
      "blasting": 8680,
      "groceries": 8681,
      "thorough": 8682,
      "colours": 8683,
      "carrying": 8684,
      "regarding": 8685,
      "belgium": 8686,
      "infamous": 8687,
      "editor": 8688,
      "aloud": 8689,
      "heating": 8690,
      "mowing": 8691,
      "feeds": 8692,
      "presen": 8693,
      "assass": 8694,
      "tricks": 8695,
      "hangout": 8696,
      "gina": 8697,
      "obli": 8698,
      "effective": 8699,
      "shipped": 8700,
      "zack": 8701,
      "struck": 8702,
      "buster": 8703,
      "krispy": 8704,
      "skipped": 8705,
      "melted": 8706,
      "intellig": 8707,
      "brutal": 8708,
      "gag": 8709,
      "ivy": 8710,
      "tila": 8711,
      "gotcha": 8712,
      "plement": 8713,
      "sip": 8714,
      "twitpics": 8715,
      "buffy": 8716,
      "overtime": 8717,
      "hii": 8718,
      "hipp": 8719,
      "visual": 8720,
      "heartbreaking": 8721,
      "pays": 8722,
      "absolut": 8723,
      "arriving": 8724,
      "spotted": 8725,
      "crackers": 8726,
      "arrang": 8727,
      "region": 8728,
      "plugged": 8729,
      "brittany": 8730,
      "saddened": 8731,
      "jewelry": 8732,
      "unbelievable": 8733,
      "medium": 8734,
      "filipino": 8735,
      "aay": 8736,
      "bbl": 8737,
      "jing": 8738,
      "oma": 8739,
      "pint": 8740,
      "rou": 8741,
      "witch": 8742,
      "ying": 8743,
      "zie": 8744,
      "zomg": 8745,
      "nicho": 8746,
      "canal": 8747,
      "shld": 8748,
      "mula": 8749,
      "twitterfox": 8750,
      "happiest": 8751,
      "whom": 8752,
      "iously": 8753,
      "grape": 8754,
      "kickin": 8755,
      "commute": 8756,
      "casual": 8757,
      "ggggg": 8758,
      "americans": 8759,
      "titles": 8760,
      "sweater": 8761,
      "suitcase": 8762,
      "spectacular": 8763,
      "pierced": 8764,
      "mariah": 8765,
      "buffet": 8766,
      "fascin": 8767,
      "engagement": 8768,
      "sarcasm": 8769,
      "hush": 8770,
      "mere": 8771,
      "reee": 8772,
      "memph": 8773,
      "haveyou": 8774,
      "labor": 8775,
      "finn": 8776,
      "umn": 8777,
      "mentally": 8778,
      "tries": 8779,
      "zzie": 8780,
      "ures": 8781,
      "sooon": 8782,
      "champions": 8783,
      "glasto": 8784,
      "tragedy": 8785,
      "antonio": 8786,
      "cee": 8787,
      "fid": 8788,
      "mash": 8789,
      "thigh": 8790,
      "enthus": 8791,
      "chir": 8792,
      "addy": 8793,
      "lib": 8794,
      "worm": 8795,
      "masters": 8796,
      "shh": 8797,
      "boi": 8798,
      "thanking": 8799,
      "compar": 8800,
      "sounding": 8801,
      "buses": 8802,
      "guessed": 8803,
      "panel": 8804,
      "cardio": 8805,
      "benef": 8806,
      "presence": 8807,
      "ghetto": 8808,
      "disturbing": 8809,
      "unemployed": 8810,
      "honored": 8811,
      "coconut": 8812,
      "memphis": 8813,
      "haveyouever": 8814,
      "aight": 8815,
      "kal": 8816,
      "noah": 8817,
      "ricky": 8818,
      "ramen": 8819,
      "query": 8820,
      "abi": 8821,
      "seein": 8822,
      "guar": 8823,
      "concl": 8824,
      "typed": 8825,
      "tonights": 8826,
      "angle": 8827,
      "iight": 8828,
      "tested": 8829,
      "throughout": 8830,
      "wooh": 8831,
      "linked": 8832,
      "brief": 8833,
      "strand": 8834,
      "dresser": 8835,
      "jamin": 8836,
      "thailand": 8837,
      "sammy": 8838,
      "sandals": 8839,
      "occur": 8840,
      "oregon": 8841,
      "danielle": 8842,
      "phase": 8843,
      "scottish": 8844,
      "utterly": 8845,
      "expired": 8846,
      "gno": 8847,
      "jt": 8848,
      "smar": 8849,
      "mechan": 8850,
      "isle": 8851,
      "terror": 8852,
      "dong": 8853,
      "weeee": 8854,
      "whatcha": 8855,
      "fob": 8856,
      "homes": 8857,
      "slut": 8858,
      "migrain": 8859,
      "estate": 8860,
      "lotsa": 8861,
      "breakdown": 8862,
      "boost": 8863,
      "voices": 8864,
      "chaos": 8865,
      "giants": 8866,
      "hittin": 8867,
      "paypal": 8868,
      "watermelon": 8869,
      "eventful": 8870,
      "logical": 8871,
      "wwwww": 8872,
      "datab": 8873,
      "milkshake": 8874,
      "intention": 8875,
      "laters": 8876,
      "masterchef": 8877,
      "pounding": 8878,
      "flooded": 8879,
      "fn": 8880,
      "lamp": 8881,
      "phar": 8882,
      "sally": 8883,
      "resort": 8884,
      "lick": 8885,
      "yeaa": 8886,
      "finland": 8887,
      "foll": 8888,
      "offended": 8889,
      "nda": 8890,
      "acade": 8891,
      "madison": 8892,
      "cities": 8893,
      "interface": 8894,
      "callin": 8895,
      "ddle": 8896,
      "kinder": 8897,
      "cyber": 8898,
      "eeek": 8899,
      "valu": 8900,
      "surprises": 8901,
      "hahahahahaha": 8902,
      "tables": 8903,
      "havn": 8904,
      "suggested": 8905,
      "capital": 8906,
      "matches": 8907,
      "static": 8908,
      "programs": 8909,
      "printed": 8910,
      "alyssa": 8911,
      "optimist": 8912,
      "egypt": 8913,
      "fx": 8914,
      "fen": 8915,
      "hust": 8916,
      "iin": 8917,
      "kreme": 8918,
      "insist": 8919,
      "hass": 8920,
      "arc": 8921,
      "associ": 8922,
      "espresso": 8923,
      "whist": 8924,
      "cano": 8925,
      "wwy": 8926,
      "chell": 8927,
      "madrid": 8928,
      "suprise": 8929,
      "everton": 8930,
      "kindle": 8931,
      "countries": 8932,
      "dreamt": 8933,
      "dancer": 8934,
      "hmmmmm": 8935,
      "stands": 8936,
      "clubs": 8937,
      "machines": 8938,
      "fluffy": 8939,
      "sque": 8940,
      "resour": 8941,
      "browsing": 8942,
      "blueberry": 8943,
      "eleven": 8944,
      "cider": 8945,
      "hollyoaks": 8946,
      "tattoos": 8947,
      "ghostbusters": 8948,
      "eastern": 8949,
      "newspaper": 8950,
      "corporate": 8951,
      "kah": 8952,
      "yeeee": 8953,
      "yung": 8954,
      "tore": 8955,
      "homo": 8956,
      "unknown": 8957,
      "webb": 8958,
      "rack": 8959,
      "urt": 8960,
      "exited": 8961,
      "heres": 8962,
      "indu": 8963,
      "bugging": 8964,
      "wardrobe": 8965,
      "intended": 8966,
      "puff": 8967,
      "ctivity": 8968,
      "downloads": 8969,
      "fitting": 8970,
      "diapers": 8971,
      "digg": 8972,
      "entertained": 8973,
      "january": 8974,
      "lifting": 8975,
      "protect": 8976,
      "bubbles": 8977,
      "continued": 8978,
      "pirates": 8979,
      "exploring": 8980,
      "glue": 8981,
      "tutorial": 8982,
      "jennifer": 8983,
      "bck": 8984,
      "ddy": 8985,
      "fond": 8986,
      "kam": 8987,
      "nina": 8988,
      "recru": 8989,
      "aring": 8990,
      "sos": 8991,
      "advan": 8992,
      "tia": 8993,
      "shred": 8994,
      "timeline": 8995,
      "bows": 8996,
      "exit": 8997,
      "affair": 8998,
      "applying": 8999,
      "dak": 9000,
      "nerve": 9001,
      "shamp": 9002,
      "darlin": 9003,
      "sucker": 9004,
      "flippin": 9005,
      "xxxxxx": 9006,
      "hydr": 9007,
      "eeeeeeeeee": 9008,
      "belfast": 9009,
      "appearance": 9010,
      "amazin": 9011,
      "cocktail": 9012,
      "oxford": 9013,
      "rangers": 9014,
      "slumdog": 9015,
      "womp": 9016,
      "hurricane": 9017,
      "bm": 9018,
      "fang": 9019,
      "pcd": 9020,
      "rink": 9021,
      "troo": 9022,
      "infin": 9023,
      "erto": 9024,
      "noe": 9025,
      "nos": 9026,
      "noisy": 9027,
      "argue": 9028,
      "rox": 9029,
      "cozy": 9030,
      "moto": 9031,
      "label": 9032,
      "frickin": 9033,
      "pause": 9034,
      "partay": 9035,
      "goddamn": 9036,
      "voy": 9037,
      "stayin": 9038,
      "boro": 9039,
      "command": 9040,
      "milit": 9041,
      "kissed": 9042,
      "balti": 9043,
      "prints": 9044,
      "systems": 9045,
      "whack": 9046,
      "splash": 9047,
      "espn": 9048,
      "fting": 9049,
      "ika": 9050,
      "sche": 9051,
      "infe": 9052,
      "stable": 9053,
      "haun": 9054,
      "leopard": 9055,
      "sod": 9056,
      "alaska": 9057,
      "rail": 9058,
      "bailey": 9059,
      "monkeys": 9060,
      "tuition": 9061,
      "minne": 9062,
      "tones": 9063,
      "synd": 9064,
      "treasure": 9065,
      "passengers": 9066,
      "invites": 9067,
      "bulls": 9068,
      "dorm": 9069,
      "remaining": 9070,
      "temporary": 9071,
      "kardashi": 9072,
      "damp": 9073,
      "fts": 9074,
      "gio": 9075,
      "imy": 9076,
      "kra": 9077,
      "pw": 9078,
      "sample": 9079,
      "tcot": 9080,
      "zation": 9081,
      "chica": 9082,
      "lope": 9083,
      "lotion": 9084,
      "rico": 9085,
      "ceiling": 9086,
      "knoww": 9087,
      "commen": 9088,
      "oooooh": 9089,
      "diva": 9090,
      "scho": 9091,
      "hardware": 9092,
      "runk": 9093,
      "skins": 9094,
      "auction": 9095,
      "wears": 9096,
      "rockstar": 9097,
      "charles": 9098,
      "fella": 9099,
      "gordon": 9100,
      "jamas": 9101,
      "uuuuuu": 9102,
      "flav": 9103,
      "statist": 9104,
      "grove": 9105,
      "impression": 9106,
      "tara": 9107,
      "priceless": 9108,
      "organizing": 9109,
      "delhi": 9110,
      "debate": 9111,
      "gadget": 9112,
      "sketch": 9113,
      "purchased": 9114,
      "shampoo": 9115,
      "hed": 9116,
      "heeee": 9117,
      "mone": 9118,
      "oscar": 9119,
      "pout": 9120,
      "yd": 9121,
      "intri": 9122,
      "tow": 9123,
      "edited": 9124,
      "adap": 9125,
      "movin": 9126,
      "lappy": 9127,
      "newly": 9128,
      "sible": 9129,
      "spree": 9130,
      "hopeless": 9131,
      "checks": 9132,
      "lette": 9133,
      "pretending": 9134,
      "torrent": 9135,
      "cookout": 9136,
      "payday": 9137,
      "panera": 9138,
      "patron": 9139,
      "smelly": 9140,
      "ranch": 9141,
      "dete": 9142,
      "trackle": 9143,
      "grammar": 9144,
      "accidently": 9145,
      "fields": 9146,
      "peek": 9147,
      "tnx": 9148,
      "bastards": 9149,
      "refuses": 9150,
      "whiskey": 9151,
      "arette": 9152,
      "gooooood": 9153,
      "invented": 9154,
      "focused": 9155,
      "method": 9156,
      "wrecked": 9157,
      "seminar": 9158,
      "universal": 9159,
      "dt": 9160,
      "dsl": 9161,
      "dumped": 9162,
      "eving": 9163,
      "tbs": 9164,
      "analy": 9165,
      "havi": 9166,
      "liar": 9167,
      "whip": 9168,
      "seaf": 9169,
      "nether": 9170,
      "macy": 9171,
      "icons": 9172,
      "feast": 9173,
      "milo": 9174,
      "studi": 9175,
      "counc": 9176,
      "cube": 9177,
      "classmates": 9178,
      "brie": 9179,
      "mumbai": 9180,
      "invitation": 9181,
      "slim": 9182,
      "personality": 9183,
      "crowded": 9184,
      "individ": 9185,
      "various": 9186,
      "ather": 9187,
      "cj": 9188,
      "kung": 9189,
      "rina": 9190,
      "invisible": 9191,
      "towers": 9192,
      "replay": 9193,
      "stall": 9194,
      "oom": 9195,
      "asth": 9196,
      "ofcourse": 9197,
      "heim": 9198,
      "verly": 9199,
      "colin": 9200,
      "shines": 9201,
      "sacri": 9202,
      "iel": 9203,
      "chew": 9204,
      "affect": 9205,
      "bles": 9206,
      "trim": 9207,
      "cleared": 9208,
      "kidney": 9209,
      "awwh": 9210,
      "smic": 9211,
      "camper": 9212,
      "eyebrows": 9213,
      "deciding": 9214,
      "hamster": 9215,
      "brighter": 9216,
      "froze": 9217,
      "cotton": 9218,
      "columbus": 9219,
      "investig": 9220,
      "department": 9221,
      "surrounded": 9222,
      "strangers": 9223,
      "iro": 9224,
      "kt": 9225,
      "sals": 9226,
      "hamilton": 9227,
      "leans": 9228,
      "eddie": 9229,
      "arab": 9230,
      "dozen": 9231,
      "greed": 9232,
      "converse": 9233,
      "pact": 9234,
      "acid": 9235,
      "cub": 9236,
      "shawn": 9237,
      "pedicure": 9238,
      "ooooooooooo": 9239,
      "grandfather": 9240,
      "banner": 9241,
      "heey": 9242,
      "shuttle": 9243,
      "christina": 9244,
      "banging": 9245,
      "psyched": 9246,
      "rotten": 9247,
      "activities": 9248,
      "globe": 9249,
      "psychology": 9250,
      "bilities": 9251,
      "margaritas": 9252,
      "autumn": 9253,
      "devastated": 9254,
      "guarant": 9255,
      "ahem": 9256,
      "bryan": 9257,
      "dwn": 9258,
      "rek": 9259,
      "mey": 9260,
      "hoho": 9261,
      "alab": 9262,
      "tidying": 9263,
      "nike": 9264,
      "maggie": 9265,
      "urgent": 9266,
      "uss": 9267,
      "navy": 9268,
      "backed": 9269,
      "twitted": 9270,
      "phan": 9271,
      "indie": 9272,
      "schoo": 9273,
      "descrip": 9274,
      "foundation": 9275,
      "hhhhhhh": 9276,
      "vibe": 9277,
      "rental": 9278,
      "natal": 9279,
      "stret": 9280,
      "benjamin": 9281,
      "geeks": 9282,
      "slipped": 9283,
      "kirk": 9284,
      "documentary": 9285,
      "stereo": 9286,
      "fw": 9287,
      "kansas": 9288,
      "vil": 9289,
      "resid": 9290,
      "itions": 9291,
      "veggies": 9292,
      "goat": 9293,
      "copies": 9294,
      "shia": 9295,
      "greys": 9296,
      "mang": 9297,
      "heya": 9298,
      "trivia": 9299,
      "woe": 9300,
      "python": 9301,
      "leads": 9302,
      "murray": 9303,
      "dodgy": 9304,
      "initi": 9305,
      "supplies": 9306,
      "elliot": 9307,
      "academy": 9308,
      "lala": 9309,
      "pant": 9310,
      "tl": 9311,
      "t_t": 9312,
      "erie": 9313,
      "chil": 9314,
      "chats": 9315,
      "licious": 9316,
      "rix": 9317,
      "abuse": 9318,
      "ahha": 9319,
      "plum": 9320,
      "connor": 9321,
      "classy": 9322,
      "sooooooooo": 9323,
      "creature": 9324,
      "walkin": 9325,
      "freaks": 9326,
      "formal": 9327,
      "chocolates": 9328,
      "mbly": 9329,
      "arghhh": 9330,
      "peeling": 9331,
      "ttttt": 9332,
      "nnnnnnnn": 9333,
      "retro": 9334,
      "guilt": 9335,
      "broadway": 9336,
      "huhuhu": 9337,
      "policy": 9338,
      "squeeze": 9339,
      "nauseous": 9340,
      "vacuum": 9341,
      "baltimore": 9342,
      "bent": 9343,
      "stoo": 9344,
      "xmas": 9345,
      "yaaa": 9346,
      "inse": 9347,
      "ington": 9348,
      "haul": 9349,
      "chunk": 9350,
      "hog": 9351,
      "deals": 9352,
      "agues": 9353,
      "homee": 9354,
      "spit": 9355,
      "thens": 9356,
      "aft": 9357,
      "manual": 9358,
      "manhat": 9359,
      "nicest": 9360,
      "earned": 9361,
      "hurrah": 9362,
      "netball": 9363,
      "underwear": 9364,
      "pleaseee": 9365,
      "directions": 9366,
      "occup": 9367,
      "aunts": 9368,
      "thnk": 9369,
      "elimin": 9370,
      "candles": 9371,
      "farmers": 9372,
      "platform": 9373,
      "powder": 9374,
      "assistant": 9375,
      "pfft": 9376,
      "bts": 9377,
      "dp": 9378,
      "kab": 9379,
      "rats": 9380,
      "themes": 9381,
      "chant": 9382,
      "behavi": 9383,
      "moth": 9384,
      "lac": 9385,
      "lacking": 9386,
      "implement": 9387,
      "napped": 9388,
      "explains": 9389,
      "mult": 9390,
      "spice": 9391,
      "mannn": 9392,
      "dyed": 9393,
      "accep": 9394,
      "mayer": 9395,
      "mina": 9396,
      "ftl": 9397,
      "disconnected": 9398,
      "tonsi": 9399,
      "diner": 9400,
      "dani": 9401,
      "versions": 9402,
      "liner": 9403,
      "covering": 9404,
      "nearby": 9405,
      "weddings": 9406,
      "recipes": 9407,
      "fighter": 9408,
      "jenn": 9409,
      "ddddd": 9410,
      "depending": 9411,
      "recogn": 9412,
      "tuesdays": 9413,
      "automatically": 9414,
      "explor": 9415,
      "gahhh": 9416,
      "kink": 9417,
      "insp": 9418,
      "input": 9419,
      "arre": 9420,
      "arrested": 9421,
      "gomez": 9422,
      "livin": 9423,
      "illion": 9424,
      "lovelove": 9425,
      "seed": 9426,
      "backwards": 9427,
      "scent": 9428,
      "dae": 9429,
      "clut": 9430,
      "desire": 9431,
      "dried": 9432,
      "ttes": 9433,
      "superman": 9434,
      "hearted": 9435,
      "bonding": 9436,
      "cccc": 9437,
      "destination": 9438,
      "cocktails": 9439,
      "folder": 9440,
      "cigarette": 9441,
      "dexter": 9442,
      "crawling": 9443,
[...]
